{"version":"1.0","truncation":null,"padding":null,"added_tokens":[{"id":0,"content":"[PAD]","single_word":true,"lstrip":true,"rstrip":true,"normalized":true,"special":true},{"id":1,"content":"[UNK]","single_word":false,"lstrip":false,"rstrip":false,"normalized":false,"special":true}],"normalizer":{"type":"BertNormalizer","clean_text":true,"handle_chinese_chars":true,"strip_accents":null,"lowercase":true},"pre_tokenizer":{"type":"BertPreTokenizer"},"post_processor":null,"decoder":{"type":"WordPiece","prefix":"##","cleanup":true},"model":{"type":"WordPiece","unk_token":"[UNK]","continuing_subword_prefix":"##","max_input_chars_per_word":100,"vocab":{"[PAD]":0,"[UNK]":1,"!":2,"\"":3,"#":4,"$":5,"%":6,"&":7,"'":8,"(":9,")":10,"*":11,"+":12,",":13,"-":14,".":15,"/":16,"0":17,"1":18,"2":19,"3":20,"4":21,"5":22,"6":23,"7":24,"8":25,"9":26,":":27,";":28,"<":29,"=":30,">":31,"?":32,"@":33,"[":34,"\\":35,"]":36,"^":37,"_":38,"`":39,"a":40,"b":41,"c":42,"d":43,"e":44,"f":45,"g":46,"h":47,"i":48,"j":49,"k":50,"l":51,"m":52,"n":53,"o":54,"p":55,"q":56,"r":57,"s":58,"t":59,"u":60,"v":61,"w":62,"x":63,"y":64,"z":65,"{":66,"|":67,"}":68,"~":69,"¡":70,"¢":71,"£":72,"¤":73,"¥":74,"¦":75,"§":76,"¨":77,"©":78,"ª":79,"«":80,"¬":81,"®":82,"°":83,"±":84,"²":85,"³":86,"´":87,"µ":88,"¶":89,"·":90,"¹":91,"º":92,"»":93,"¼":94,"½":95,"¾":96,"¿":97,"×":98,"ß":99,"æ":100,"ð":101,"÷":102,"ø":103,"þ":104,"đ":105,"ħ":106,"ı":107,"ł":108,"ŋ":109,"œ":110,"ƒ":111,"ɐ":112,"ɑ":113,"ɒ":114,"ɔ":115,"ɕ":116,"ə":117,"ɛ":118,"ɡ":119,"ɣ":120,"ɨ":121,"ɪ":122,"ɫ":123,"ɬ":124,"ɯ":125,"ɲ":126,"ɴ":127,"ɹ":128,"ɾ":129,"ʀ":130,"ʁ":131,"ʂ":132,"ʃ":133,"ʉ":134,"ʊ":135,"ʋ":136,"ʌ":137,"ʎ":138,"ʐ":139,"ʑ":140,"ʒ":141,"ʔ":142,"ʰ":143,"ʲ":144,"ʳ":145,"ʷ":146,"ʸ":147,"ʻ":148,"ʼ":149,"ʾ":150,"ʿ":151,"ˈ":152,"ː":153,"ˡ":154,"ˢ":155,"ˣ":156,"ˤ":157,"α":158,"β":159,"γ":160,"δ":161,"ε":162,"ζ":163,"η":164,"θ":165,"ι":166,"κ":167,"λ":168,"μ":169,"ν":170,"ξ":171,"ο":172,"π":173,"ρ":174,"ς":175,"σ":176,"τ":177,"υ":178,"φ":179,"χ":180,"ψ":181,"ω":182,"а":183,"б":184,"в":185,"г":186,"д":187,"е":188,"ж":189,"з":190,"и":191,"к":192,"л":193,"м":194,"н":195,"о":196,"п":197,"р":198,"с":199,"т":200,"у":201,"ф":202,"х":203,"ц":204,"ч":205,"ш":206,"щ":207,"ъ":208,"ы":209,"ь":210,"э":211,"ю":212,"я":213,"ђ":214,"є":215,"і":216,"ј":217,"љ":218,"њ":219,"ћ":220,"ӏ":221,"ա":222,"բ":223,"գ":224,"դ":225,"ե":226,"թ":227,"ի":228,"լ":229,"կ":230,"հ":231,"մ":232,"յ":233,"ն":234,"ո":235,"պ":236,"ս":237,"վ":238,"տ":239,"ր":240,"ւ":241,"ք":242,"־":243,"א":244,"ב":245,"ג":246,"ד":247,"ה":248,"ו":249,"ז":250,"ח":251,"ט":252,"י":253,"ך":254,"כ":255,"ל":256,"ם":257,"מ":258,"ן":259,"נ":260,"ס":261,"ע":262,"ף":263,"פ":264,"ץ":265,"צ":266,"ק":267,"ר":268,"ש":269,"ת":270,"،":271,"ء":272,"ا":273,"ب":274,"ة":275,"ت":276,"ث":277,"ج":278,"ح":279,"خ":280,"د":281,"ذ":282,"ر":283,"ز":284,"س":285,"ش":286,"ص":287,"ض":288,"ط":289,"ظ":290,"ع":291,"غ":292,"ـ":293,"ف":294,"ق":295,"ك":296,"ل":297,"م":298,"ن":299,"ه":300,"و":301,"ى":302,"ي":303,"ٹ":304,"پ":305,"چ":306,"ک":307,"گ":308,"ں":309,"ھ":310,"ہ":311,"ی":312,"ے":313,"अ":314,"आ":315,"उ":316,"ए":317,"क":318,"ख":319,"ग":320,"च":321,"ज":322,"ट":323,"ड":324,"ण":325,"त":326,"थ":327,"द":328,"ध":329,"न":330,"प":331,"ब":332,"भ":333,"म":334,"य":335,"र":336,"ल":337,"व":338,"श":339,"ष":340,"स":341,"ह":342,"ा":343,"ि":344,"ी":345,"ो":346,"।":347,"॥":348,"ং":349,"অ":350,"আ":351,"ই":352,"উ":353,"এ":354,"ও":355,"ক":356,"খ":357,"গ":358,"চ":359,"ছ":360,"জ":361,"ট":362,"ড":363,"ণ":364,"ত":365,"থ":366,"দ":367,"ধ":368,"ন":369,"প":370,"ব":371,"ভ":372,"ম":373,"য":374,"র":375,"ল":376,"শ":377,"ষ":378,"স":379,"হ":380,"া":381,"ি":382,"ী":383,"ে":384,"க":385,"ச":386,"ட":387,"த":388,"ந":389,"ன":390,"ப":391,"ம":392,"ய":393,"ர":394,"ல":395,"ள":396,"வ":397,"ா":398,"ி":399,"ு":400,"ே":401,"ை":402,"ನ":403,"ರ":404,"ಾ":405,"ක":406,"ය":407,"ර":408,"ල":409,"ව":410,"ා":411,"ก":412,"ง":413,"ต":414,"ท":415,"น":416,"พ":417,"ม":418,"ย":419,"ร":420,"ล":421,"ว":422,"ส":423,"อ":424,"า":425,"เ":426,"་":427,"།":428,"ག":429,"ང":430,"ད":431,"ན":432,"པ":433,"བ":434,"མ":435,"འ":436,"ར":437,"ལ":438,"ས":439,"မ":440,"ა":441,"ბ":442,"გ":443,"დ":444,"ე":445,"ვ":446,"თ":447,"ი":448,"კ":449,"ლ":450,"მ":451,"ნ":452,"ო":453,"რ":454,"ს":455,"ტ":456,"უ":457,"ᄀ":458,"ᄂ":459,"ᄃ":460,"ᄅ":461,"ᄆ":462,"ᄇ":463,"ᄉ":464,"ᄊ":465,"ᄋ":466,"ᄌ":467,"ᄎ":468,"ᄏ":469,"ᄐ":470,"ᄑ":471,"ᄒ":472,"ᅡ":473,"ᅢ":474,"ᅥ":475,"ᅦ":476,"ᅧ":477,"ᅩ":478,"ᅪ":479,"ᅭ":480,"ᅮ":481,"ᅯ":482,"ᅲ":483,"ᅳ":484,"ᅴ":485,"ᅵ":486,"ᆨ":487,"ᆫ":488,"ᆯ":489,"ᆷ":490,"ᆸ":491,"ᆼ":492,"ᴬ":493,"ᴮ":494,"ᴰ":495,"ᴵ":496,"ᴺ":497,"ᵀ":498,"ᵃ":499,"ᵇ":500,"ᵈ":501,"ᵉ":502,"ᵍ":503,"ᵏ":504,"ᵐ":505,"ᵒ":506,"ᵖ":507,"ᵗ":508,"ᵘ":509,"ᵢ":510,"ᵣ":511,"ᵤ":512,"ᵥ":513,"ᶜ":514,"ᶠ":515,"‐":516,"‑":517,"‒":518,"–":519,"—":520,"―":521,"‖":522,"‘":523,"’":524,"‚":525,"“":526,"”":527,"„":528,"†":529,"‡":530,"•":531,"…":532,"‰":533,"′":534,"″":535,"›":536,"‿":537,"⁄":538,"⁰":539,"ⁱ":540,"⁴":541,"⁵":542,"⁶":543,"⁷":544,"⁸":545,"⁹":546,"⁺":547,"⁻":548,"ⁿ":549,"₀":550,"₁":551,"₂":552,"₃":553,"₄":554,"₅":555,"₆":556,"₇":557,"₈":558,"₉":559,"₊":560,"₍":561,"₎":562,"ₐ":563,"ₑ":564,"ₒ":565,"ₓ":566,"ₕ":567,"ₖ":568,"ₗ":569,"ₘ":570,"ₙ":571,"ₚ":572,"ₛ":573,"ₜ":574,"₤":575,"₩":576,"€":577,"₱":578,"₹":579,"ℓ":580,"№":581,"ℝ":582,"™":583,"⅓":584,"⅔":585,"←":586,"↑":587,"→":588,"↓":589,"↔":590,"↦":591,"⇄":592,"⇌":593,"⇒":594,"∂":595,"∅":596,"∆":597,"∇":598,"∈":599,"−":600,"∗":601,"∘":602,"√":603,"∞":604,"∧":605,"∨":606,"∩":607,"∪":608,"≈":609,"≡":610,"≤":611,"≥":612,"⊂":613,"⊆":614,"⊕":615,"⊗":616,"⋅":617,"─":618,"│":619,"■":620,"▪":621,"●":622,"★":623,"☆":624,"☉":625,"♠":626,"♣":627,"♥":628,"♦":629,"♭":630,"♯":631,"⟨":632,"⟩":633,"ⱼ":634,"⺩":635,"⺼":636,"⽥":637,"、":638,"。":639,"〈":640,"〉":641,"《":642,"》":643,"「":644,"」":645,"『":646,"』":647,"〜":648,"あ":649,"い":650,"う":651,"え":652,"お":653,"か":654,"き":655,"く":656,"け":657,"こ":658,"さ":659,"し":660,"す":661,"せ":662,"そ":663,"た":664,"ち":665,"っ":666,"つ":667,"て":668,"と":669,"な":670,"に":671,"ぬ":672,"ね":673,"の":674,"は":675,"ひ":676,"ふ":677,"へ":678,"ほ":679,"ま":680,"み":681,"む":682,"め":683,"も":684,"や":685,"ゆ":686,"よ":687,"ら":688,"り":689,"る":690,"れ":691,"ろ":692,"を":693,"ん":694,"ァ":695,"ア":696,"ィ":697,"イ":698,"ウ":699,"ェ":700,"エ":701,"オ":702,"カ":703,"キ":704,"ク":705,"ケ":706,"コ":707,"サ":708,"シ":709,"ス":710,"セ":711,"タ":712,"チ":713,"ッ":714,"ツ":715,"テ":716,"ト":717,"ナ":718,"ニ":719,"ノ":720,"ハ":721,"ヒ":722,"フ":723,"ヘ":724,"ホ":725,"マ":726,"ミ":727,"ム":728,"メ":729,"モ":730,"ャ":731,"ュ":732,"ョ":733,"ラ":734,"リ":735,"ル":736,"レ":737,"ロ":738,"ワ":739,"ン":740,"・":741,"ー":742,"一":743,"三":744,"上":745,"下":746,"不":747,"世":748,"中":749,"主":750,"久":751,"之":752,"也":753,"事":754,"二":755,"五":756,"井":757,"京":758,"人":759,"亻":760,"仁":761,"介":762,"代":763,"仮":764,"伊":765,"会":766,"佐":767,"侍":768,"保":769,"信":770,"健":771,"元":772,"光":773,"八":774,"公":775,"内":776,"出":777,"分":778,"前":779,"劉":780,"力":781,"加":782,"勝":783,"北":784,"区":785,"十":786,"千":787,"南":788,"博":789,"原":790,"口":791,"古":792,"史":793,"司":794,"合":795,"吉":796,"同":797,"名":798,"和":799,"囗":800,"四":801,"国":802,"國":803,"土":804,"地":805,"坂":806,"城":807,"堂":808,"場":809,"士":810,"夏":811,"外":812,"大":813,"天":814,"太":815,"夫":816,"奈":817,"女":818,"子":819,"学":820,"宀":821,"宇":822,"安":823,"宗":824,"定":825,"宣":826,"宮":827,"家":828,"宿":829,"寺":830,"將":831,"小":832,"尚":833,"山":834,"岡":835,"島":836,"崎":837,"川":838,"州":839,"巿":840,"帝":841,"平":842,"年":843,"幸":844,"广":845,"弘":846,"張":847,"彳":848,"後":849,"御":850,"德":851,"心":852,"忄":853,"志":854,"忠":855,"愛":856,"成":857,"我":858,"戦":859,"戸":860,"手":861,"扌":862,"政":863,"文":864,"新":865,"方":866,"日":867,"明":868,"星":869,"春":870,"昭":871,"智":872,"曲":873,"書":874,"月":875,"有":876,"朝":877,"木":878,"本":879,"李":880,"村":881,"東":882,"松":883,"林":884,"森":885,"楊":886,"樹":887,"橋":888,"歌":889,"止":890,"正":891,"武":892,"比":893,"氏":894,"民":895,"水":896,"氵":897,"氷":898,"永":899,"江":900,"沢":901,"河":902,"治":903,"法":904,"海":905,"清":906,"漢":907,"瀬":908,"火":909,"版":910,"犬":911,"王":912,"生":913,"田":914,"男":915,"疒":916,"発":917,"白":918,"的":919,"皇":920,"目":921,"相":922,"省":923,"真":924,"石":925,"示":926,"社":927,"神":928,"福":929,"禾":930,"秀":931,"秋":932,"空":933,"立":934,"章":935,"竹":936,"糹":937,"美":938,"義":939,"耳":940,"良":941,"艹":942,"花":943,"英":944,"華":945,"葉":946,"藤":947,"行":948,"街":949,"西":950,"見":951,"訁":952,"語":953,"谷":954,"貝":955,"貴":956,"車":957,"軍":958,"辶":959,"道":960,"郎":961,"郡":962,"部":963,"都":964,"里":965,"野":966,"金":967,"鈴":968,"镇":969,"長":970,"門":971,"間":972,"阝":973,"阿":974,"陳":975,"陽":976,"雄":977,"青":978,"面":979,"風":980,"食":981,"香":982,"馬":983,"高":984,"龍":985,"龸":986,"ﬁ":987,"ﬂ":988,"！":989,"（":990,"）":991,"，":992,"－":993,"．":994,"／":995,"：":996,"？":997,"～":998,"the":999,"of":1000,"and":1001,"in":1002,"to":1003,"was":1004,"he":1005,"is":1006,"as":1007,"for":1008,"on":1009,"with":1010,"that":1011,"it":1012,"his":1013,"by":1014,"at":1015,"from":1016,"her":1017,"##s":1018,"she":1019,"you":1020,"had":1021,"an":1022,"were":1023,"but":1024,"be":1025,"this":1026,"are":1027,"not":1028,"my":1029,"they":1030,"one":1031,"which":1032,"or":1033,"have":1034,"him":1035,"me":1036,"first":1037,"all":1038,"also":1039,"their":1040,"has":1041,"up":1042,"who":1043,"out":1044,"been":1045,"when":1046,"after":1047,"there":1048,"into":1049,"new":1050,"two":1051,"its":1052,"##a":1053,"time":1054,"would":1055,"no":1056,"what":1057,"about":1058,"said":1059,"we":1060,"over":1061,"then":1062,"other":1063,"so":1064,"more":1065,"##e":1066,"can":1067,"if":1068,"like":1069,"back":1070,"them":1071,"only":1072,"some":1073,"could":1074,"##i":1075,"where":1076,"just":1077,"##ing":1078,"during":1079,"before":1080,"##n":1081,"do":1082,"##o":1083,"made":1084,"school":1085,"through":1086,"than":1087,"now":1088,"years":1089,"most":1090,"world":1091,"may":1092,"between":1093,"down":1094,"well":1095,"three":1096,"##d":1097,"year":1098,"while":1099,"will":1100,"##ed":1101,"##r":1102,"##y":1103,"later":1104,"##t":1105,"city":1106,"under":1107,"around":1108,"did":1109,"such":1110,"being":1111,"used":1112,"state":1113,"people":1114,"part":1115,"know":1116,"against":1117,"your":1118,"many":1119,"second":1120,"university":1121,"both":1122,"national":1123,"##er":1124,"these":1125,"don":1126,"known":1127,"off":1128,"way":1129,"until":1130,"re":1131,"how":1132,"even":1133,"get":1134,"head":1135,"...":1136,"didn":1137,"##ly":1138,"team":1139,"american":1140,"because":1141,"de":1142,"##l":1143,"born":1144,"united":1145,"film":1146,"since":1147,"still":1148,"long":1149,"work":1150,"south":1151,"us":1152,"became":1153,"any":1154,"high":1155,"again":1156,"day":1157,"family":1158,"see":1159,"right":1160,"man":1161,"eyes":1162,"house":1163,"season":1164,"war":1165,"states":1166,"including":1167,"took":1168,"life":1169,"north":1170,"same":1171,"each":1172,"called":1173,"name":1174,"much":1175,"place":1176,"however":1177,"go":1178,"four":1179,"group":1180,"another":1181,"found":1182,"won":1183,"area":1184,"here":1185,"going":1186,"10":1187,"away":1188,"series":1189,"left":1190,"home":1191,"music":1192,"best":1193,"make":1194,"hand":1195,"number":1196,"company":1197,"several":1198,"never":1199,"last":1200,"john":1201,"000":1202,"very":1203,"album":1204,"take":1205,"end":1206,"good":1207,"too":1208,"following":1209,"released":1210,"game":1211,"played":1212,"little":1213,"began":1214,"district":1215,"##m":1216,"old":1217,"want":1218,"those":1219,"side":1220,"held":1221,"own":1222,"early":1223,"county":1224,"ll":1225,"league":1226,"use":1227,"west":1228,"##u":1229,"face":1230,"think":1231,"##es":1232,"2010":1233,"government":1234,"##h":1235,"march":1236,"came":1237,"small":1238,"general":1239,"town":1240,"june":1241,"##on":1242,"line":1243,"based":1244,"something":1245,"##k":1246,"september":1247,"thought":1248,"looked":1249,"along":1250,"international":1251,"2011":1252,"air":1253,"july":1254,"club":1255,"went":1256,"january":1257,"october":1258,"our":1259,"august":1260,"april":1261,"york":1262,"12":1263,"few":1264,"2012":1265,"2008":1266,"east":1267,"show":1268,"member":1269,"college":1270,"2009":1271,"father":1272,"public":1273,"##us":1274,"come":1275,"men":1276,"five":1277,"set":1278,"station":1279,"church":1280,"##c":1281,"next":1282,"former":1283,"november":1284,"room":1285,"party":1286,"located":1287,"december":1288,"2013":1289,"age":1290,"got":1291,"2007":1292,"##g":1293,"system":1294,"let":1295,"love":1296,"2006":1297,"though":1298,"every":1299,"2014":1300,"look":1301,"song":1302,"water":1303,"century":1304,"without":1305,"body":1306,"black":1307,"night":1308,"within":1309,"great":1310,"women":1311,"single":1312,"ve":1313,"building":1314,"large":1315,"population":1316,"river":1317,"named":1318,"band":1319,"white":1320,"started":1321,"##an":1322,"once":1323,"15":1324,"20":1325,"should":1326,"18":1327,"2015":1328,"service":1329,"top":1330,"built":1331,"british":1332,"open":1333,"death":1334,"king":1335,"moved":1336,"local":1337,"times":1338,"children":1339,"february":1340,"book":1341,"why":1342,"11":1343,"door":1344,"need":1345,"president":1346,"order":1347,"final":1348,"road":1349,"wasn":1350,"although":1351,"due":1352,"major":1353,"died":1354,"village":1355,"third":1356,"knew":1357,"2016":1358,"asked":1359,"turned":1360,"st":1361,"wanted":1362,"say":1363,"##p":1364,"together":1365,"received":1366,"main":1367,"son":1368,"served":1369,"different":1370,"##en":1371,"behind":1372,"himself":1373,"felt":1374,"members":1375,"power":1376,"football":1377,"law":1378,"voice":1379,"play":1380,"##in":1381,"near":1382,"park":1383,"history":1384,"30":1385,"having":1386,"2005":1387,"16":1388,"##man":1389,"saw":1390,"mother":1391,"##al":1392,"army":1393,"point":1394,"front":1395,"help":1396,"english":1397,"street":1398,"art":1399,"late":1400,"hands":1401,"games":1402,"award":1403,"##ia":1404,"young":1405,"14":1406,"put":1407,"published":1408,"country":1409,"division":1410,"across":1411,"told":1412,"13":1413,"often":1414,"ever":1415,"french":1416,"london":1417,"center":1418,"six":1419,"red":1420,"2017":1421,"led":1422,"days":1423,"include":1424,"light":1425,"25":1426,"find":1427,"tell":1428,"among":1429,"species":1430,"really":1431,"according":1432,"central":1433,"half":1434,"2004":1435,"form":1436,"original":1437,"gave":1438,"office":1439,"making":1440,"enough":1441,"lost":1442,"full":1443,"opened":1444,"must":1445,"included":1446,"live":1447,"given":1448,"german":1449,"player":1450,"run":1451,"business":1452,"woman":1453,"community":1454,"cup":1455,"might":1456,"million":1457,"land":1458,"2000":1459,"court":1460,"development":1461,"17":1462,"short":1463,"round":1464,"ii":1465,"km":1466,"seen":1467,"class":1468,"story":1469,"always":1470,"become":1471,"sure":1472,"research":1473,"almost":1474,"director":1475,"council":1476,"la":1477,"##2":1478,"career":1479,"things":1480,"using":1481,"island":1482,"##z":1483,"couldn":1484,"car":1485,"##is":1486,"24":1487,"close":1488,"force":1489,"##1":1490,"better":1491,"free":1492,"support":1493,"control":1494,"field":1495,"students":1496,"2003":1497,"education":1498,"married":1499,"##b":1500,"nothing":1501,"worked":1502,"others":1503,"record":1504,"big":1505,"inside":1506,"level":1507,"anything":1508,"continued":1509,"give":1510,"james":1511,"##3":1512,"military":1513,"established":1514,"non":1515,"returned":1516,"feel":1517,"does":1518,"title":1519,"written":1520,"thing":1521,"feet":1522,"william":1523,"far":1524,"co":1525,"association":1526,"hard":1527,"already":1528,"2002":1529,"##ra":1530,"championship":1531,"human":1532,"western":1533,"100":1534,"##na":1535,"department":1536,"hall":1537,"role":1538,"various":1539,"production":1540,"21":1541,"19":1542,"heart":1543,"2001":1544,"living":1545,"fire":1546,"version":1547,"##ers":1548,"##f":1549,"television":1550,"royal":1551,"##4":1552,"produced":1553,"working":1554,"act":1555,"case":1556,"society":1557,"region":1558,"present":1559,"radio":1560,"period":1561,"looking":1562,"least":1563,"total":1564,"keep":1565,"england":1566,"wife":1567,"program":1568,"per":1569,"brother":1570,"mind":1571,"special":1572,"22":1573,"##le":1574,"am":1575,"works":1576,"soon":1577,"##6":1578,"political":1579,"george":1580,"services":1581,"taken":1582,"created":1583,"##7":1584,"further":1585,"able":1586,"reached":1587,"david":1588,"union":1589,"joined":1590,"upon":1591,"done":1592,"important":1593,"social":1594,"information":1595,"either":1596,"##ic":1597,"##x":1598,"appeared":1599,"position":1600,"ground":1601,"lead":1602,"rock":1603,"dark":1604,"election":1605,"23":1606,"board":1607,"france":1608,"hair":1609,"course":1610,"arms":1611,"site":1612,"police":1613,"girl":1614,"instead":1615,"real":1616,"sound":1617,"##v":1618,"words":1619,"moment":1620,"##te":1621,"someone":1622,"##8":1623,"summer":1624,"project":1625,"announced":1626,"san":1627,"less":1628,"wrote":1629,"past":1630,"followed":1631,"##5":1632,"blue":1633,"founded":1634,"al":1635,"finally":1636,"india":1637,"taking":1638,"records":1639,"america":1640,"##ne":1641,"1999":1642,"design":1643,"considered":1644,"northern":1645,"god":1646,"stop":1647,"battle":1648,"toward":1649,"european":1650,"outside":1651,"described":1652,"track":1653,"today":1654,"playing":1655,"language":1656,"28":1657,"call":1658,"26":1659,"heard":1660,"professional":1661,"low":1662,"australia":1663,"miles":1664,"california":1665,"win":1666,"yet":1667,"green":1668,"##ie":1669,"trying":1670,"blood":1671,"##ton":1672,"southern":1673,"science":1674,"maybe":1675,"everything":1676,"match":1677,"square":1678,"27":1679,"mouth":1680,"video":1681,"race":1682,"recorded":1683,"leave":1684,"above":1685,"##9":1686,"daughter":1687,"points":1688,"space":1689,"1998":1690,"museum":1691,"change":1692,"middle":1693,"common":1694,"##0":1695,"move":1696,"tv":1697,"post":1698,"##ta":1699,"lake":1700,"seven":1701,"tried":1702,"elected":1703,"closed":1704,"ten":1705,"paul":1706,"minister":1707,"##th":1708,"months":1709,"start":1710,"chief":1711,"return":1712,"canada":1713,"person":1714,"sea":1715,"release":1716,"similar":1717,"modern":1718,"brought":1719,"rest":1720,"hit":1721,"formed":1722,"mr":1723,"##la":1724,"1997":1725,"floor":1726,"event":1727,"doing":1728,"thomas":1729,"1996":1730,"robert":1731,"care":1732,"killed":1733,"training":1734,"star":1735,"week":1736,"needed":1737,"turn":1738,"finished":1739,"railway":1740,"rather":1741,"news":1742,"health":1743,"sent":1744,"example":1745,"ran":1746,"term":1747,"michael":1748,"coming":1749,"currently":1750,"yes":1751,"forces":1752,"despite":1753,"gold":1754,"areas":1755,"50":1756,"stage":1757,"fact":1758,"29":1759,"dead":1760,"says":1761,"popular":1762,"2018":1763,"originally":1764,"germany":1765,"probably":1766,"developed":1767,"result":1768,"pulled":1769,"friend":1770,"stood":1771,"money":1772,"running":1773,"mi":1774,"signed":1775,"word":1776,"songs":1777,"child":1778,"eventually":1779,"met":1780,"tour":1781,"average":1782,"teams":1783,"minutes":1784,"festival":1785,"current":1786,"deep":1787,"kind":1788,"1995":1789,"decided":1790,"usually":1791,"eastern":1792,"seemed":1793,"##ness":1794,"episode":1795,"bed":1796,"added":1797,"table":1798,"indian":1799,"private":1800,"charles":1801,"route":1802,"available":1803,"idea":1804,"throughout":1805,"centre":1806,"addition":1807,"appointed":1808,"style":1809,"1994":1810,"books":1811,"eight":1812,"construction":1813,"press":1814,"mean":1815,"wall":1816,"friends":1817,"remained":1818,"schools":1819,"study":1820,"##ch":1821,"##um":1822,"institute":1823,"oh":1824,"chinese":1825,"sometimes":1826,"events":1827,"possible":1828,"1992":1829,"australian":1830,"type":1831,"brown":1832,"forward":1833,"talk":1834,"process":1835,"food":1836,"debut":1837,"seat":1838,"performance":1839,"committee":1840,"features":1841,"character":1842,"arts":1843,"herself":1844,"else":1845,"lot":1846,"strong":1847,"russian":1848,"range":1849,"hours":1850,"peter":1851,"arm":1852,"##da":1853,"morning":1854,"dr":1855,"sold":1856,"##ry":1857,"quickly":1858,"directed":1859,"1993":1860,"guitar":1861,"china":1862,"##w":1863,"31":1864,"list":1865,"##ma":1866,"performed":1867,"media":1868,"uk":1869,"players":1870,"smile":1871,"##rs":1872,"myself":1873,"40":1874,"placed":1875,"coach":1876,"province":1877,"towards":1878,"wouldn":1879,"leading":1880,"whole":1881,"boy":1882,"official":1883,"designed":1884,"grand":1885,"census":1886,"##el":1887,"europe":1888,"attack":1889,"japanese":1890,"henry":1891,"1991":1892,"##re":1893,"##os":1894,"cross":1895,"getting":1896,"alone":1897,"action":1898,"lower":1899,"network":1900,"wide":1901,"washington":1902,"japan":1903,"1990":1904,"hospital":1905,"believe":1906,"changed":1907,"sister":1908,"##ar":1909,"hold":1910,"gone":1911,"sir":1912,"hadn":1913,"ship":1914,"##ka":1915,"studies":1916,"academy":1917,"shot":1918,"rights":1919,"below":1920,"base":1921,"bad":1922,"involved":1923,"kept":1924,"largest":1925,"##ist":1926,"bank":1927,"future":1928,"especially":1929,"beginning":1930,"mark":1931,"movement":1932,"section":1933,"female":1934,"magazine":1935,"plan":1936,"professor":1937,"lord":1938,"longer":1939,"##ian":1940,"sat":1941,"walked":1942,"hill":1943,"actually":1944,"civil":1945,"energy":1946,"model":1947,"families":1948,"size":1949,"thus":1950,"aircraft":1951,"completed":1952,"includes":1953,"data":1954,"captain":1955,"##or":1956,"fight":1957,"vocals":1958,"featured":1959,"richard":1960,"bridge":1961,"fourth":1962,"1989":1963,"officer":1964,"stone":1965,"hear":1966,"##ism":1967,"means":1968,"medical":1969,"groups":1970,"management":1971,"self":1972,"lips":1973,"competition":1974,"entire":1975,"lived":1976,"technology":1977,"leaving":1978,"federal":1979,"tournament":1980,"bit":1981,"passed":1982,"hot":1983,"independent":1984,"awards":1985,"kingdom":1986,"mary":1987,"spent":1988,"fine":1989,"doesn":1990,"reported":1991,"##ling":1992,"jack":1993,"fall":1994,"raised":1995,"itself":1996,"stay":1997,"true":1998,"studio":1999,"1988":2000,"sports":2001,"replaced":2002,"paris":2003,"systems":2004,"saint":2005,"leader":2006,"theatre":2007,"whose":2008,"market":2009,"capital":2010,"parents":2011,"spanish":2012,"canadian":2013,"earth":2014,"##ity":2015,"cut":2016,"degree":2017,"writing":2018,"bay":2019,"christian":2020,"awarded":2021,"natural":2022,"higher":2023,"bill":2024,"##as":2025,"coast":2026,"provided":2027,"previous":2028,"senior":2029,"ft":2030,"valley":2031,"organization":2032,"stopped":2033,"onto":2034,"countries":2035,"parts":2036,"conference":2037,"queen":2038,"security":2039,"interest":2040,"saying":2041,"allowed":2042,"master":2043,"earlier":2044,"phone":2045,"matter":2046,"smith":2047,"winning":2048,"try":2049,"happened":2050,"moving":2051,"campaign":2052,"los":2053,"##ley":2054,"breath":2055,"nearly":2056,"mid":2057,"1987":2058,"certain":2059,"girls":2060,"date":2061,"italian":2062,"african":2063,"standing":2064,"fell":2065,"artist":2066,"##ted":2067,"shows":2068,"deal":2069,"mine":2070,"industry":2071,"1986":2072,"##ng":2073,"everyone":2074,"republic":2075,"provide":2076,"collection":2077,"library":2078,"student":2079,"##ville":2080,"primary":2081,"owned":2082,"older":2083,"via":2084,"heavy":2085,"1st":2086,"makes":2087,"##able":2088,"attention":2089,"anyone":2090,"africa":2091,"##ri":2092,"stated":2093,"length":2094,"ended":2095,"fingers":2096,"command":2097,"staff":2098,"skin":2099,"foreign":2100,"opening":2101,"governor":2102,"okay":2103,"medal":2104,"kill":2105,"sun":2106,"cover":2107,"job":2108,"1985":2109,"introduced":2110,"chest":2111,"hell":2112,"feeling":2113,"##ies":2114,"success":2115,"meet":2116,"reason":2117,"standard":2118,"meeting":2119,"novel":2120,"1984":2121,"trade":2122,"source":2123,"buildings":2124,"##land":2125,"rose":2126,"guy":2127,"goal":2128,"##ur":2129,"chapter":2130,"native":2131,"husband":2132,"previously":2133,"unit":2134,"limited":2135,"entered":2136,"weeks":2137,"producer":2138,"operations":2139,"mountain":2140,"takes":2141,"covered":2142,"forced":2143,"related":2144,"roman":2145,"complete":2146,"successful":2147,"key":2148,"texas":2149,"cold":2150,"##ya":2151,"channel":2152,"1980":2153,"traditional":2154,"films":2155,"dance":2156,"clear":2157,"approximately":2158,"500":2159,"nine":2160,"van":2161,"prince":2162,"question":2163,"active":2164,"tracks":2165,"ireland":2166,"regional":2167,"silver":2168,"author":2169,"personal":2170,"sense":2171,"operation":2172,"##ine":2173,"economic":2174,"1983":2175,"holding":2176,"twenty":2177,"isbn":2178,"additional":2179,"speed":2180,"hour":2181,"edition":2182,"regular":2183,"historic":2184,"places":2185,"whom":2186,"shook":2187,"movie":2188,"km²":2189,"secretary":2190,"prior":2191,"report":2192,"chicago":2193,"read":2194,"foundation":2195,"view":2196,"engine":2197,"scored":2198,"1982":2199,"units":2200,"ask":2201,"airport":2202,"property":2203,"ready":2204,"immediately":2205,"lady":2206,"month":2207,"listed":2208,"contract":2209,"##de":2210,"manager":2211,"themselves":2212,"lines":2213,"##ki":2214,"navy":2215,"writer":2216,"meant":2217,"##ts":2218,"runs":2219,"##ro":2220,"practice":2221,"championships":2222,"singer":2223,"glass":2224,"commission":2225,"required":2226,"forest":2227,"starting":2228,"culture":2229,"generally":2230,"giving":2231,"access":2232,"attended":2233,"test":2234,"couple":2235,"stand":2236,"catholic":2237,"martin":2238,"caught":2239,"executive":2240,"##less":2241,"eye":2242,"##ey":2243,"thinking":2244,"chair":2245,"quite":2246,"shoulder":2247,"1979":2248,"hope":2249,"decision":2250,"plays":2251,"defeated":2252,"municipality":2253,"whether":2254,"structure":2255,"offered":2256,"slowly":2257,"pain":2258,"ice":2259,"direction":2260,"##ion":2261,"paper":2262,"mission":2263,"1981":2264,"mostly":2265,"200":2266,"noted":2267,"individual":2268,"managed":2269,"nature":2270,"lives":2271,"plant":2272,"##ha":2273,"helped":2274,"except":2275,"studied":2276,"computer":2277,"figure":2278,"relationship":2279,"issue":2280,"significant":2281,"loss":2282,"die":2283,"smiled":2284,"gun":2285,"ago":2286,"highest":2287,"1972":2288,"##am":2289,"male":2290,"bring":2291,"goals":2292,"mexico":2293,"problem":2294,"distance":2295,"commercial":2296,"completely":2297,"location":2298,"annual":2299,"famous":2300,"drive":2301,"1976":2302,"neck":2303,"1978":2304,"surface":2305,"caused":2306,"italy":2307,"understand":2308,"greek":2309,"highway":2310,"wrong":2311,"hotel":2312,"comes":2313,"appearance":2314,"joseph":2315,"double":2316,"issues":2317,"musical":2318,"companies":2319,"castle":2320,"income":2321,"review":2322,"assembly":2323,"bass":2324,"initially":2325,"parliament":2326,"artists":2327,"experience":2328,"1974":2329,"particular":2330,"walk":2331,"foot":2332,"engineering":2333,"talking":2334,"window":2335,"dropped":2336,"##ter":2337,"miss":2338,"baby":2339,"boys":2340,"break":2341,"1975":2342,"stars":2343,"edge":2344,"remember":2345,"policy":2346,"carried":2347,"train":2348,"stadium":2349,"bar":2350,"sex":2351,"angeles":2352,"evidence":2353,"##ge":2354,"becoming":2355,"assistant":2356,"soviet":2357,"1977":2358,"upper":2359,"step":2360,"wing":2361,"1970":2362,"youth":2363,"financial":2364,"reach":2365,"##ll":2366,"actor":2367,"numerous":2368,"##se":2369,"##st":2370,"nodded":2371,"arrived":2372,"##ation":2373,"minute":2374,"##nt":2375,"believed":2376,"sorry":2377,"complex":2378,"beautiful":2379,"victory":2380,"associated":2381,"temple":2382,"1968":2383,"1973":2384,"chance":2385,"perhaps":2386,"metal":2387,"##son":2388,"1945":2389,"bishop":2390,"##et":2391,"lee":2392,"launched":2393,"particularly":2394,"tree":2395,"le":2396,"retired":2397,"subject":2398,"prize":2399,"contains":2400,"yeah":2401,"theory":2402,"empire":2403,"##ce":2404,"suddenly":2405,"waiting":2406,"trust":2407,"recording":2408,"##to":2409,"happy":2410,"terms":2411,"camp":2412,"champion":2413,"1971":2414,"religious":2415,"pass":2416,"zealand":2417,"names":2418,"2nd":2419,"port":2420,"ancient":2421,"tom":2422,"corner":2423,"represented":2424,"watch":2425,"legal":2426,"anti":2427,"justice":2428,"cause":2429,"watched":2430,"brothers":2431,"45":2432,"material":2433,"changes":2434,"simply":2435,"response":2436,"louis":2437,"fast":2438,"##ting":2439,"answer":2440,"60":2441,"historical":2442,"1969":2443,"stories":2444,"straight":2445,"create":2446,"feature":2447,"increased":2448,"rate":2449,"administration":2450,"virginia":2451,"el":2452,"activities":2453,"cultural":2454,"overall":2455,"winner":2456,"programs":2457,"basketball":2458,"legs":2459,"guard":2460,"beyond":2461,"cast":2462,"doctor":2463,"mm":2464,"flight":2465,"results":2466,"remains":2467,"cost":2468,"effect":2469,"winter":2470,"##ble":2471,"larger":2472,"islands":2473,"problems":2474,"chairman":2475,"grew":2476,"commander":2477,"isn":2478,"1967":2479,"pay":2480,"failed":2481,"selected":2482,"hurt":2483,"fort":2484,"box":2485,"regiment":2486,"majority":2487,"journal":2488,"35":2489,"edward":2490,"plans":2491,"##ke":2492,"##ni":2493,"shown":2494,"pretty":2495,"irish":2496,"characters":2497,"directly":2498,"scene":2499,"likely":2500,"operated":2501,"allow":2502,"spring":2503,"##j":2504,"junior":2505,"matches":2506,"looks":2507,"mike":2508,"houses":2509,"fellow":2510,"##tion":2511,"beach":2512,"marriage":2513,"##ham":2514,"##ive":2515,"rules":2516,"oil":2517,"65":2518,"florida":2519,"expected":2520,"nearby":2521,"congress":2522,"sam":2523,"peace":2524,"recent":2525,"iii":2526,"wait":2527,"subsequently":2528,"cell":2529,"##do":2530,"variety":2531,"serving":2532,"agreed":2533,"please":2534,"poor":2535,"joe":2536,"pacific":2537,"attempt":2538,"wood":2539,"democratic":2540,"piece":2541,"prime":2542,"##ca":2543,"rural":2544,"mile":2545,"touch":2546,"appears":2547,"township":2548,"1964":2549,"1966":2550,"soldiers":2551,"##men":2552,"##ized":2553,"1965":2554,"pennsylvania":2555,"closer":2556,"fighting":2557,"claimed":2558,"score":2559,"jones":2560,"physical":2561,"editor":2562,"##ous":2563,"filled":2564,"genus":2565,"specific":2566,"sitting":2567,"super":2568,"mom":2569,"##va":2570,"therefore":2571,"supported":2572,"status":2573,"fear":2574,"cases":2575,"store":2576,"meaning":2577,"wales":2578,"minor":2579,"spain":2580,"tower":2581,"focus":2582,"vice":2583,"frank":2584,"follow":2585,"parish":2586,"separate":2587,"golden":2588,"horse":2589,"fifth":2590,"remaining":2591,"branch":2592,"32":2593,"presented":2594,"stared":2595,"##id":2596,"uses":2597,"secret":2598,"forms":2599,"##co":2600,"baseball":2601,"exactly":2602,"##ck":2603,"choice":2604,"note":2605,"discovered":2606,"travel":2607,"composed":2608,"truth":2609,"russia":2610,"ball":2611,"color":2612,"kiss":2613,"dad":2614,"wind":2615,"continue":2616,"ring":2617,"referred":2618,"numbers":2619,"digital":2620,"greater":2621,"##ns":2622,"metres":2623,"slightly":2624,"direct":2625,"increase":2626,"1960":2627,"responsible":2628,"crew":2629,"rule":2630,"trees":2631,"troops":2632,"##no":2633,"broke":2634,"goes":2635,"individuals":2636,"hundred":2637,"weight":2638,"creek":2639,"sleep":2640,"memory":2641,"defense":2642,"provides":2643,"ordered":2644,"code":2645,"value":2646,"jewish":2647,"windows":2648,"1944":2649,"safe":2650,"judge":2651,"whatever":2652,"corps":2653,"realized":2654,"growing":2655,"pre":2656,"##ga":2657,"cities":2658,"alexander":2659,"gaze":2660,"lies":2661,"spread":2662,"scott":2663,"letter":2664,"showed":2665,"situation":2666,"mayor":2667,"transport":2668,"watching":2669,"workers":2670,"extended":2671,"##li":2672,"expression":2673,"normal":2674,"##ment":2675,"chart":2676,"multiple":2677,"border":2678,"##ba":2679,"host":2680,"##ner":2681,"daily":2682,"mrs":2683,"walls":2684,"piano":2685,"##ko":2686,"heat":2687,"cannot":2688,"##ate":2689,"earned":2690,"products":2691,"drama":2692,"era":2693,"authority":2694,"seasons":2695,"join":2696,"grade":2697,"##io":2698,"sign":2699,"difficult":2700,"machine":2701,"1963":2702,"territory":2703,"mainly":2704,"##wood":2705,"stations":2706,"squadron":2707,"1962":2708,"stepped":2709,"iron":2710,"19th":2711,"##led":2712,"serve":2713,"appear":2714,"sky":2715,"speak":2716,"broken":2717,"charge":2718,"knowledge":2719,"kilometres":2720,"removed":2721,"ships":2722,"article":2723,"campus":2724,"simple":2725,"##ty":2726,"pushed":2727,"britain":2728,"##ve":2729,"leaves":2730,"recently":2731,"cd":2732,"soft":2733,"boston":2734,"latter":2735,"easy":2736,"acquired":2737,"poland":2738,"##sa":2739,"quality":2740,"officers":2741,"presence":2742,"planned":2743,"nations":2744,"mass":2745,"broadcast":2746,"jean":2747,"share":2748,"image":2749,"influence":2750,"wild":2751,"offer":2752,"emperor":2753,"electric":2754,"reading":2755,"headed":2756,"ability":2757,"promoted":2758,"yellow":2759,"ministry":2760,"1942":2761,"throat":2762,"smaller":2763,"politician":2764,"##by":2765,"latin":2766,"spoke":2767,"cars":2768,"williams":2769,"males":2770,"lack":2771,"pop":2772,"80":2773,"##ier":2774,"acting":2775,"seeing":2776,"consists":2777,"##ti":2778,"estate":2779,"1961":2780,"pressure":2781,"johnson":2782,"newspaper":2783,"jr":2784,"chris":2785,"olympics":2786,"online":2787,"conditions":2788,"beat":2789,"elements":2790,"walking":2791,"vote":2792,"##field":2793,"needs":2794,"carolina":2795,"text":2796,"featuring":2797,"global":2798,"block":2799,"shirt":2800,"levels":2801,"francisco":2802,"purpose":2803,"females":2804,"et":2805,"dutch":2806,"duke":2807,"ahead":2808,"gas":2809,"twice":2810,"safety":2811,"serious":2812,"turning":2813,"highly":2814,"lieutenant":2815,"firm":2816,"maria":2817,"amount":2818,"mixed":2819,"daniel":2820,"proposed":2821,"perfect":2822,"agreement":2823,"affairs":2824,"3rd":2825,"seconds":2826,"contemporary":2827,"paid":2828,"1943":2829,"prison":2830,"save":2831,"kitchen":2832,"label":2833,"administrative":2834,"intended":2835,"constructed":2836,"academic":2837,"nice":2838,"teacher":2839,"races":2840,"1956":2841,"formerly":2842,"corporation":2843,"ben":2844,"nation":2845,"issued":2846,"shut":2847,"1958":2848,"drums":2849,"housing":2850,"victoria":2851,"seems":2852,"opera":2853,"1959":2854,"graduated":2855,"function":2856,"von":2857,"mentioned":2858,"picked":2859,"build":2860,"recognized":2861,"shortly":2862,"protection":2863,"picture":2864,"notable":2865,"exchange":2866,"elections":2867,"1980s":2868,"loved":2869,"percent":2870,"racing":2871,"fish":2872,"elizabeth":2873,"garden":2874,"volume":2875,"hockey":2876,"1941":2877,"beside":2878,"settled":2879,"##ford":2880,"1940":2881,"competed":2882,"replied":2883,"drew":2884,"1948":2885,"actress":2886,"marine":2887,"scotland":2888,"steel":2889,"glanced":2890,"farm":2891,"steve":2892,"1957":2893,"risk":2894,"tonight":2895,"positive":2896,"magic":2897,"singles":2898,"effects":2899,"gray":2900,"screen":2901,"dog":2902,"##ja":2903,"residents":2904,"bus":2905,"sides":2906,"none":2907,"secondary":2908,"literature":2909,"polish":2910,"destroyed":2911,"flying":2912,"founder":2913,"households":2914,"1939":2915,"lay":2916,"reserve":2917,"usa":2918,"gallery":2919,"##ler":2920,"1946":2921,"industrial":2922,"younger":2923,"approach":2924,"appearances":2925,"urban":2926,"ones":2927,"1950":2928,"finish":2929,"avenue":2930,"powerful":2931,"fully":2932,"growth":2933,"page":2934,"honor":2935,"jersey":2936,"projects":2937,"advanced":2938,"revealed":2939,"basic":2940,"90":2941,"infantry":2942,"pair":2943,"equipment":2944,"visit":2945,"33":2946,"evening":2947,"search":2948,"grant":2949,"effort":2950,"solo":2951,"treatment":2952,"buried":2953,"republican":2954,"primarily":2955,"bottom":2956,"owner":2957,"1970s":2958,"israel":2959,"gives":2960,"jim":2961,"dream":2962,"bob":2963,"remain":2964,"spot":2965,"70":2966,"notes":2967,"produce":2968,"champions":2969,"contact":2970,"ed":2971,"soul":2972,"accepted":2973,"ways":2974,"del":2975,"##ally":2976,"losing":2977,"split":2978,"price":2979,"capacity":2980,"basis":2981,"trial":2982,"questions":2983,"##ina":2984,"1955":2985,"20th":2986,"guess":2987,"officially":2988,"memorial":2989,"naval":2990,"initial":2991,"##ization":2992,"whispered":2993,"median":2994,"engineer":2995,"##ful":2996,"sydney":2997,"##go":2998,"columbia":2999,"strength":3000,"300":3001,"1952":3002,"tears":3003,"senate":3004,"00":3005,"card":3006,"asian":3007,"agent":3008,"1947":3009,"software":3010,"44":3011,"draw":3012,"warm":3013,"supposed":3014,"com":3015,"pro":3016,"##il":3017,"transferred":3018,"leaned":3019,"##at":3020,"candidate":3021,"escape":3022,"mountains":3023,"asia":3024,"potential":3025,"activity":3026,"entertainment":3027,"seem":3028,"traffic":3029,"jackson":3030,"murder":3031,"36":3032,"slow":3033,"product":3034,"orchestra":3035,"haven":3036,"agency":3037,"bbc":3038,"taught":3039,"website":3040,"comedy":3041,"unable":3042,"storm":3043,"planning":3044,"albums":3045,"rugby":3046,"environment":3047,"scientific":3048,"grabbed":3049,"protect":3050,"##hi":3051,"boat":3052,"typically":3053,"1954":3054,"1953":3055,"damage":3056,"principal":3057,"divided":3058,"dedicated":3059,"mount":3060,"ohio":3061,"##berg":3062,"pick":3063,"fought":3064,"driver":3065,"##der":3066,"empty":3067,"shoulders":3068,"sort":3069,"thank":3070,"berlin":3071,"prominent":3072,"account":3073,"freedom":3074,"necessary":3075,"efforts":3076,"alex":3077,"headquarters":3078,"follows":3079,"alongside":3080,"des":3081,"simon":3082,"andrew":3083,"suggested":3084,"operating":3085,"learning":3086,"steps":3087,"1949":3088,"sweet":3089,"technical":3090,"begin":3091,"easily":3092,"34":3093,"teeth":3094,"speaking":3095,"settlement":3096,"scale":3097,"##sh":3098,"renamed":3099,"ray":3100,"max":3101,"enemy":3102,"semi":3103,"joint":3104,"compared":3105,"##rd":3106,"scottish":3107,"leadership":3108,"analysis":3109,"offers":3110,"georgia":3111,"pieces":3112,"captured":3113,"animal":3114,"deputy":3115,"guest":3116,"organized":3117,"##lin":3118,"tony":3119,"combined":3120,"method":3121,"challenge":3122,"1960s":3123,"huge":3124,"wants":3125,"battalion":3126,"sons":3127,"rise":3128,"crime":3129,"types":3130,"facilities":3131,"telling":3132,"path":3133,"1951":3134,"platform":3135,"sit":3136,"1990s":3137,"##lo":3138,"tells":3139,"assigned":3140,"rich":3141,"pull":3142,"##ot":3143,"commonly":3144,"alive":3145,"##za":3146,"letters":3147,"concept":3148,"conducted":3149,"wearing":3150,"happen":3151,"bought":3152,"becomes":3153,"holy":3154,"gets":3155,"ocean":3156,"defeat":3157,"languages":3158,"purchased":3159,"coffee":3160,"occurred":3161,"titled":3162,"##q":3163,"declared":3164,"applied":3165,"sciences":3166,"concert":3167,"sounds":3168,"jazz":3169,"brain":3170,"##me":3171,"painting":3172,"fleet":3173,"tax":3174,"nick":3175,"##ius":3176,"michigan":3177,"count":3178,"animals":3179,"leaders":3180,"episodes":3181,"##line":3182,"content":3183,"##den":3184,"birth":3185,"##it":3186,"clubs":3187,"64":3188,"palace":3189,"critical":3190,"refused":3191,"fair":3192,"leg":3193,"laughed":3194,"returning":3195,"surrounding":3196,"participated":3197,"formation":3198,"lifted":3199,"pointed":3200,"connected":3201,"rome":3202,"medicine":3203,"laid":3204,"taylor":3205,"santa":3206,"powers":3207,"adam":3208,"tall":3209,"shared":3210,"focused":3211,"knowing":3212,"yards":3213,"entrance":3214,"falls":3215,"##wa":3216,"calling":3217,"##ad":3218,"sources":3219,"chosen":3220,"beneath":3221,"resources":3222,"yard":3223,"##ite":3224,"nominated":3225,"silence":3226,"zone":3227,"defined":3228,"##que":3229,"gained":3230,"thirty":3231,"38":3232,"bodies":3233,"moon":3234,"##ard":3235,"adopted":3236,"christmas":3237,"widely":3238,"register":3239,"apart":3240,"iran":3241,"premier":3242,"serves":3243,"du":3244,"unknown":3245,"parties":3246,"##les":3247,"generation":3248,"##ff":3249,"continues":3250,"quick":3251,"fields":3252,"brigade":3253,"quiet":3254,"teaching":3255,"clothes":3256,"impact":3257,"weapons":3258,"partner":3259,"flat":3260,"theater":3261,"supreme":3262,"1938":3263,"37":3264,"relations":3265,"##tor":3266,"plants":3267,"suffered":3268,"1936":3269,"wilson":3270,"kids":3271,"begins":3272,"##age":3273,"1918":3274,"seats":3275,"armed":3276,"internet":3277,"models":3278,"worth":3279,"laws":3280,"400":3281,"communities":3282,"classes":3283,"background":3284,"knows":3285,"thanks":3286,"quarter":3287,"reaching":3288,"humans":3289,"carry":3290,"killing":3291,"format":3292,"kong":3293,"hong":3294,"setting":3295,"75":3296,"architecture":3297,"disease":3298,"railroad":3299,"inc":3300,"possibly":3301,"wish":3302,"arthur":3303,"thoughts":3304,"harry":3305,"doors":3306,"density":3307,"##di":3308,"crowd":3309,"illinois":3310,"stomach":3311,"tone":3312,"unique":3313,"reports":3314,"anyway":3315,"##ir":3316,"liberal":3317,"der":3318,"vehicle":3319,"thick":3320,"dry":3321,"drug":3322,"faced":3323,"largely":3324,"facility":3325,"theme":3326,"holds":3327,"creation":3328,"strange":3329,"colonel":3330,"##mi":3331,"revolution":3332,"bell":3333,"politics":3334,"turns":3335,"silent":3336,"rail":3337,"relief":3338,"independence":3339,"combat":3340,"shape":3341,"write":3342,"determined":3343,"sales":3344,"learned":3345,"4th":3346,"finger":3347,"oxford":3348,"providing":3349,"1937":3350,"heritage":3351,"fiction":3352,"situated":3353,"designated":3354,"allowing":3355,"distribution":3356,"hosted":3357,"##est":3358,"sight":3359,"interview":3360,"estimated":3361,"reduced":3362,"##ria":3363,"toronto":3364,"footballer":3365,"keeping":3366,"guys":3367,"damn":3368,"claim":3369,"motion":3370,"sport":3371,"sixth":3372,"stayed":3373,"##ze":3374,"en":3375,"rear":3376,"receive":3377,"handed":3378,"twelve":3379,"dress":3380,"audience":3381,"granted":3382,"brazil":3383,"##well":3384,"spirit":3385,"##ated":3386,"noticed":3387,"etc":3388,"olympic":3389,"representative":3390,"eric":3391,"tight":3392,"trouble":3393,"reviews":3394,"drink":3395,"vampire":3396,"missing":3397,"roles":3398,"ranked":3399,"newly":3400,"household":3401,"finals":3402,"wave":3403,"critics":3404,"##ee":3405,"phase":3406,"massachusetts":3407,"pilot":3408,"unlike":3409,"philadelphia":3410,"bright":3411,"guns":3412,"crown":3413,"organizations":3414,"roof":3415,"42":3416,"respectively":3417,"clearly":3418,"tongue":3419,"marked":3420,"circle":3421,"fox":3422,"korea":3423,"bronze":3424,"brian":3425,"expanded":3426,"sexual":3427,"supply":3428,"yourself":3429,"inspired":3430,"labour":3431,"fc":3432,"##ah":3433,"reference":3434,"vision":3435,"draft":3436,"connection":3437,"brand":3438,"reasons":3439,"1935":3440,"classic":3441,"driving":3442,"trip":3443,"jesus":3444,"cells":3445,"entry":3446,"1920":3447,"neither":3448,"trail":3449,"claims":3450,"atlantic":3451,"orders":3452,"labor":3453,"nose":3454,"afraid":3455,"identified":3456,"intelligence":3457,"calls":3458,"cancer":3459,"attacked":3460,"passing":3461,"stephen":3462,"positions":3463,"imperial":3464,"grey":3465,"jason":3466,"39":3467,"sunday":3468,"48":3469,"swedish":3470,"avoid":3471,"extra":3472,"uncle":3473,"message":3474,"covers":3475,"allows":3476,"surprise":3477,"materials":3478,"fame":3479,"hunter":3480,"##ji":3481,"1930":3482,"citizens":3483,"figures":3484,"davis":3485,"environmental":3486,"confirmed":3487,"shit":3488,"titles":3489,"di":3490,"performing":3491,"difference":3492,"acts":3493,"attacks":3494,"##ov":3495,"existing":3496,"votes":3497,"opportunity":3498,"nor":3499,"shop":3500,"entirely":3501,"trains":3502,"opposite":3503,"pakistan":3504,"##pa":3505,"develop":3506,"resulted":3507,"representatives":3508,"actions":3509,"reality":3510,"pressed":3511,"##ish":3512,"barely":3513,"wine":3514,"conversation":3515,"faculty":3516,"northwest":3517,"ends":3518,"documentary":3519,"nuclear":3520,"stock":3521,"grace":3522,"sets":3523,"eat":3524,"alternative":3525,"##ps":3526,"bag":3527,"resulting":3528,"creating":3529,"surprised":3530,"cemetery":3531,"1919":3532,"drop":3533,"finding":3534,"sarah":3535,"cricket":3536,"streets":3537,"tradition":3538,"ride":3539,"1933":3540,"exhibition":3541,"target":3542,"ear":3543,"explained":3544,"rain":3545,"composer":3546,"injury":3547,"apartment":3548,"municipal":3549,"educational":3550,"occupied":3551,"netherlands":3552,"clean":3553,"billion":3554,"constitution":3555,"learn":3556,"1914":3557,"maximum":3558,"classical":3559,"francis":3560,"lose":3561,"opposition":3562,"jose":3563,"ontario":3564,"bear":3565,"core":3566,"hills":3567,"rolled":3568,"ending":3569,"drawn":3570,"permanent":3571,"fun":3572,"##tes":3573,"##lla":3574,"lewis":3575,"sites":3576,"chamber":3577,"ryan":3578,"##way":3579,"scoring":3580,"height":3581,"1934":3582,"##house":3583,"lyrics":3584,"staring":3585,"55":3586,"officials":3587,"1917":3588,"snow":3589,"oldest":3590,"##tic":3591,"orange":3592,"##ger":3593,"qualified":3594,"interior":3595,"apparently":3596,"succeeded":3597,"thousand":3598,"dinner":3599,"lights":3600,"existence":3601,"fans":3602,"heavily":3603,"41":3604,"greatest":3605,"conservative":3606,"send":3607,"bowl":3608,"plus":3609,"enter":3610,"catch":3611,"##un":3612,"economy":3613,"duty":3614,"1929":3615,"speech":3616,"authorities":3617,"princess":3618,"performances":3619,"versions":3620,"shall":3621,"graduate":3622,"pictures":3623,"effective":3624,"remembered":3625,"poetry":3626,"desk":3627,"crossed":3628,"starring":3629,"starts":3630,"passenger":3631,"sharp":3632,"##ant":3633,"acres":3634,"ass":3635,"weather":3636,"falling":3637,"rank":3638,"fund":3639,"supporting":3640,"check":3641,"adult":3642,"publishing":3643,"heads":3644,"cm":3645,"southeast":3646,"lane":3647,"##burg":3648,"application":3649,"bc":3650,"##ura":3651,"les":3652,"condition":3653,"transfer":3654,"prevent":3655,"display":3656,"ex":3657,"regions":3658,"earl":3659,"federation":3660,"cool":3661,"relatively":3662,"answered":3663,"besides":3664,"1928":3665,"obtained":3666,"portion":3667,"##town":3668,"mix":3669,"##ding":3670,"reaction":3671,"liked":3672,"dean":3673,"express":3674,"peak":3675,"1932":3676,"##tte":3677,"counter":3678,"religion":3679,"chain":3680,"rare":3681,"miller":3682,"convention":3683,"aid":3684,"lie":3685,"vehicles":3686,"mobile":3687,"perform":3688,"squad":3689,"wonder":3690,"lying":3691,"crazy":3692,"sword":3693,"##ping":3694,"attempted":3695,"centuries":3696,"weren":3697,"philosophy":3698,"category":3699,"##ize":3700,"anna":3701,"interested":3702,"47":3703,"sweden":3704,"wolf":3705,"frequently":3706,"abandoned":3707,"kg":3708,"literary":3709,"alliance":3710,"task":3711,"entitled":3712,"##ay":3713,"threw":3714,"promotion":3715,"factory":3716,"tiny":3717,"soccer":3718,"visited":3719,"matt":3720,"fm":3721,"achieved":3722,"52":3723,"defence":3724,"internal":3725,"persian":3726,"43":3727,"methods":3728,"##ging":3729,"arrested":3730,"otherwise":3731,"cambridge":3732,"programming":3733,"villages":3734,"elementary":3735,"districts":3736,"rooms":3737,"criminal":3738,"conflict":3739,"worry":3740,"trained":3741,"1931":3742,"attempts":3743,"waited":3744,"signal":3745,"bird":3746,"truck":3747,"subsequent":3748,"programme":3749,"##ol":3750,"ad":3751,"49":3752,"communist":3753,"details":3754,"faith":3755,"sector":3756,"patrick":3757,"carrying":3758,"laugh":3759,"##ss":3760,"controlled":3761,"korean":3762,"showing":3763,"origin":3764,"fuel":3765,"evil":3766,"1927":3767,"##ent":3768,"brief":3769,"identity":3770,"darkness":3771,"address":3772,"pool":3773,"missed":3774,"publication":3775,"web":3776,"planet":3777,"ian":3778,"anne":3779,"wings":3780,"invited":3781,"##tt":3782,"briefly":3783,"standards":3784,"kissed":3785,"##be":3786,"ideas":3787,"climate":3788,"causing":3789,"walter":3790,"worse":3791,"albert":3792,"articles":3793,"winners":3794,"desire":3795,"aged":3796,"northeast":3797,"dangerous":3798,"gate":3799,"doubt":3800,"1922":3801,"wooden":3802,"multi":3803,"##ky":3804,"poet":3805,"rising":3806,"funding":3807,"46":3808,"communications":3809,"communication":3810,"violence":3811,"copies":3812,"prepared":3813,"ford":3814,"investigation":3815,"skills":3816,"1924":3817,"pulling":3818,"electronic":3819,"##ak":3820,"##ial":3821,"##han":3822,"containing":3823,"ultimately":3824,"offices":3825,"singing":3826,"understanding":3827,"restaurant":3828,"tomorrow":3829,"fashion":3830,"christ":3831,"ward":3832,"da":3833,"pope":3834,"stands":3835,"5th":3836,"flow":3837,"studios":3838,"aired":3839,"commissioned":3840,"contained":3841,"exist":3842,"fresh":3843,"americans":3844,"##per":3845,"wrestling":3846,"approved":3847,"kid":3848,"employed":3849,"respect":3850,"suit":3851,"1925":3852,"angel":3853,"asking":3854,"increasing":3855,"frame":3856,"angry":3857,"selling":3858,"1950s":3859,"thin":3860,"finds":3861,"##nd":3862,"temperature":3863,"statement":3864,"ali":3865,"explain":3866,"inhabitants":3867,"towns":3868,"extensive":3869,"narrow":3870,"51":3871,"jane":3872,"flowers":3873,"images":3874,"promise":3875,"somewhere":3876,"object":3877,"fly":3878,"closely":3879,"##ls":3880,"1912":3881,"bureau":3882,"cape":3883,"1926":3884,"weekly":3885,"presidential":3886,"legislative":3887,"1921":3888,"##ai":3889,"##au":3890,"launch":3891,"founding":3892,"##ny":3893,"978":3894,"##ring":3895,"artillery":3896,"strike":3897,"un":3898,"institutions":3899,"roll":3900,"writers":3901,"landing":3902,"chose":3903,"kevin":3904,"anymore":3905,"pp":3906,"##ut":3907,"attorney":3908,"fit":3909,"dan":3910,"billboard":3911,"receiving":3912,"agricultural":3913,"breaking":3914,"sought":3915,"dave":3916,"admitted":3917,"lands":3918,"mexican":3919,"##bury":3920,"charlie":3921,"specifically":3922,"hole":3923,"iv":3924,"howard":3925,"credit":3926,"moscow":3927,"roads":3928,"accident":3929,"1923":3930,"proved":3931,"wear":3932,"struck":3933,"hey":3934,"guards":3935,"stuff":3936,"slid":3937,"expansion":3938,"1915":3939,"cat":3940,"anthony":3941,"##kin":3942,"melbourne":3943,"opposed":3944,"sub":3945,"southwest":3946,"architect":3947,"failure":3948,"plane":3949,"1916":3950,"##ron":3951,"map":3952,"camera":3953,"tank":3954,"listen":3955,"regarding":3956,"wet":3957,"introduction":3958,"metropolitan":3959,"link":3960,"ep":3961,"fighter":3962,"inch":3963,"grown":3964,"gene":3965,"anger":3966,"fixed":3967,"buy":3968,"dvd":3969,"khan":3970,"domestic":3971,"worldwide":3972,"chapel":3973,"mill":3974,"functions":3975,"examples":3976,"##head":3977,"developing":3978,"1910":3979,"turkey":3980,"hits":3981,"pocket":3982,"antonio":3983,"papers":3984,"grow":3985,"unless":3986,"circuit":3987,"18th":3988,"concerned":3989,"attached":3990,"journalist":3991,"selection":3992,"journey":3993,"converted":3994,"provincial":3995,"painted":3996,"hearing":3997,"aren":3998,"bands":3999,"negative":4000,"aside":4001,"wondered":4002,"knight":4003,"lap":4004,"survey":4005,"ma":4006,"##ow":4007,"noise":4008,"billy":4009,"##ium":4010,"shooting":4011,"guide":4012,"bedroom":4013,"priest":4014,"resistance":4015,"motor":4016,"homes":4017,"sounded":4018,"giant":4019,"##mer":4020,"150":4021,"scenes":4022,"equal":4023,"comic":4024,"patients":4025,"hidden":4026,"solid":4027,"actual":4028,"bringing":4029,"afternoon":4030,"touched":4031,"funds":4032,"wedding":4033,"consisted":4034,"marie":4035,"canal":4036,"sr":4037,"kim":4038,"treaty":4039,"turkish":4040,"recognition":4041,"residence":4042,"cathedral":4043,"broad":4044,"knees":4045,"incident":4046,"shaped":4047,"fired":4048,"norwegian":4049,"handle":4050,"cheek":4051,"contest":4052,"represent":4053,"##pe":4054,"representing":4055,"beauty":4056,"##sen":4057,"birds":4058,"advantage":4059,"emergency":4060,"wrapped":4061,"drawing":4062,"notice":4063,"pink":4064,"broadcasting":4065,"##ong":4066,"somehow":4067,"bachelor":4068,"seventh":4069,"collected":4070,"registered":4071,"establishment":4072,"alan":4073,"assumed":4074,"chemical":4075,"personnel":4076,"roger":4077,"retirement":4078,"jeff":4079,"portuguese":4080,"wore":4081,"tied":4082,"device":4083,"threat":4084,"progress":4085,"advance":4086,"##ised":4087,"banks":4088,"hired":4089,"manchester":4090,"nfl":4091,"teachers":4092,"structures":4093,"forever":4094,"##bo":4095,"tennis":4096,"helping":4097,"saturday":4098,"sale":4099,"applications":4100,"junction":4101,"hip":4102,"incorporated":4103,"neighborhood":4104,"dressed":4105,"ceremony":4106,"##ds":4107,"influenced":4108,"hers":4109,"visual":4110,"stairs":4111,"decades":4112,"inner":4113,"kansas":4114,"hung":4115,"hoped":4116,"gain":4117,"scheduled":4118,"downtown":4119,"engaged":4120,"austria":4121,"clock":4122,"norway":4123,"certainly":4124,"pale":4125,"protected":4126,"1913":4127,"victor":4128,"employees":4129,"plate":4130,"putting":4131,"surrounded":4132,"##ists":4133,"finishing":4134,"blues":4135,"tropical":4136,"##ries":4137,"minnesota":4138,"consider":4139,"philippines":4140,"accept":4141,"54":4142,"retrieved":4143,"1900":4144,"concern":4145,"anderson":4146,"properties":4147,"institution":4148,"gordon":4149,"successfully":4150,"vietnam":4151,"##dy":4152,"backing":4153,"outstanding":4154,"muslim":4155,"crossing":4156,"folk":4157,"producing":4158,"usual":4159,"demand":4160,"occurs":4161,"observed":4162,"lawyer":4163,"educated":4164,"##ana":4165,"kelly":4166,"string":4167,"pleasure":4168,"budget":4169,"items":4170,"quietly":4171,"colorado":4172,"philip":4173,"typical":4174,"##worth":4175,"derived":4176,"600":4177,"survived":4178,"asks":4179,"mental":4180,"##ide":4181,"56":4182,"jake":4183,"jews":4184,"distinguished":4185,"ltd":4186,"1911":4187,"sri":4188,"extremely":4189,"53":4190,"athletic":4191,"loud":4192,"thousands":4193,"worried":4194,"shadow":4195,"transportation":4196,"horses":4197,"weapon":4198,"arena":4199,"importance":4200,"users":4201,"tim":4202,"objects":4203,"contributed":4204,"dragon":4205,"douglas":4206,"aware":4207,"senator":4208,"johnny":4209,"jordan":4210,"sisters":4211,"engines":4212,"flag":4213,"investment":4214,"samuel":4215,"shock":4216,"capable":4217,"clark":4218,"row":4219,"wheel":4220,"refers":4221,"session":4222,"familiar":4223,"biggest":4224,"wins":4225,"hate":4226,"maintained":4227,"drove":4228,"hamilton":4229,"request":4230,"expressed":4231,"injured":4232,"underground":4233,"churches":4234,"walker":4235,"wars":4236,"tunnel":4237,"passes":4238,"stupid":4239,"agriculture":4240,"softly":4241,"cabinet":4242,"regarded":4243,"joining":4244,"indiana":4245,"##ea":4246,"##ms":4247,"push":4248,"dates":4249,"spend":4250,"behavior":4251,"woods":4252,"protein":4253,"gently":4254,"chase":4255,"morgan":4256,"mention":4257,"burning":4258,"wake":4259,"combination":4260,"occur":4261,"mirror":4262,"leads":4263,"jimmy":4264,"indeed":4265,"impossible":4266,"singapore":4267,"paintings":4268,"covering":4269,"##nes":4270,"soldier":4271,"locations":4272,"attendance":4273,"sell":4274,"historian":4275,"wisconsin":4276,"invasion":4277,"argued":4278,"painter":4279,"diego":4280,"changing":4281,"egypt":4282,"##don":4283,"experienced":4284,"inches":4285,"##ku":4286,"missouri":4287,"vol":4288,"grounds":4289,"spoken":4290,"switzerland":4291,"##gan":4292,"reform":4293,"rolling":4294,"ha":4295,"forget":4296,"massive":4297,"resigned":4298,"burned":4299,"allen":4300,"tennessee":4301,"locked":4302,"values":4303,"improved":4304,"##mo":4305,"wounded":4306,"universe":4307,"sick":4308,"dating":4309,"facing":4310,"pack":4311,"purchase":4312,"user":4313,"##pur":4314,"moments":4315,"##ul":4316,"merged":4317,"anniversary":4318,"1908":4319,"coal":4320,"brick":4321,"understood":4322,"causes":4323,"dynasty":4324,"queensland":4325,"establish":4326,"stores":4327,"crisis":4328,"promote":4329,"hoping":4330,"views":4331,"cards":4332,"referee":4333,"extension":4334,"##si":4335,"raise":4336,"arizona":4337,"improve":4338,"colonial":4339,"formal":4340,"charged":4341,"##rt":4342,"palm":4343,"lucky":4344,"hide":4345,"rescue":4346,"faces":4347,"95":4348,"feelings":4349,"candidates":4350,"juan":4351,"##ell":4352,"goods":4353,"6th":4354,"courses":4355,"weekend":4356,"59":4357,"luke":4358,"cash":4359,"fallen":4360,"##om":4361,"delivered":4362,"affected":4363,"installed":4364,"carefully":4365,"tries":4366,"swiss":4367,"hollywood":4368,"costs":4369,"lincoln":4370,"responsibility":4371,"##he":4372,"shore":4373,"file":4374,"proper":4375,"normally":4376,"maryland":4377,"assistance":4378,"jump":4379,"constant":4380,"offering":4381,"friendly":4382,"waters":4383,"persons":4384,"realize":4385,"contain":4386,"trophy":4387,"800":4388,"partnership":4389,"factor":4390,"58":4391,"musicians":4392,"cry":4393,"bound":4394,"oregon":4395,"indicated":4396,"hero":4397,"houston":4398,"medium":4399,"##ure":4400,"consisting":4401,"somewhat":4402,"##ara":4403,"57":4404,"cycle":4405,"##che":4406,"beer":4407,"moore":4408,"frederick":4409,"gotten":4410,"eleven":4411,"worst":4412,"weak":4413,"approached":4414,"arranged":4415,"chin":4416,"loan":4417,"universal":4418,"bond":4419,"fifteen":4420,"pattern":4421,"disappeared":4422,"##ney":4423,"translated":4424,"##zed":4425,"lip":4426,"arab":4427,"capture":4428,"interests":4429,"insurance":4430,"##chi":4431,"shifted":4432,"cave":4433,"prix":4434,"warning":4435,"sections":4436,"courts":4437,"coat":4438,"plot":4439,"smell":4440,"feed":4441,"golf":4442,"favorite":4443,"maintain":4444,"knife":4445,"vs":4446,"voted":4447,"degrees":4448,"finance":4449,"quebec":4450,"opinion":4451,"translation":4452,"manner":4453,"ruled":4454,"operate":4455,"productions":4456,"choose":4457,"musician":4458,"discovery":4459,"confused":4460,"tired":4461,"separated":4462,"stream":4463,"techniques":4464,"committed":4465,"attend":4466,"ranking":4467,"kings":4468,"throw":4469,"passengers":4470,"measure":4471,"horror":4472,"fan":4473,"mining":4474,"sand":4475,"danger":4476,"salt":4477,"calm":4478,"decade":4479,"dam":4480,"require":4481,"runner":4482,"##ik":4483,"rush":4484,"associate":4485,"greece":4486,"##ker":4487,"rivers":4488,"consecutive":4489,"matthew":4490,"##ski":4491,"sighed":4492,"sq":4493,"documents":4494,"steam":4495,"edited":4496,"closing":4497,"tie":4498,"accused":4499,"1905":4500,"##ini":4501,"islamic":4502,"distributed":4503,"directors":4504,"organisation":4505,"bruce":4506,"7th":4507,"breathing":4508,"mad":4509,"lit":4510,"arrival":4511,"concrete":4512,"taste":4513,"08":4514,"composition":4515,"shaking":4516,"faster":4517,"amateur":4518,"adjacent":4519,"stating":4520,"1906":4521,"twin":4522,"flew":4523,"##ran":4524,"tokyo":4525,"publications":4526,"##tone":4527,"obviously":4528,"ridge":4529,"storage":4530,"1907":4531,"carl":4532,"pages":4533,"concluded":4534,"desert":4535,"driven":4536,"universities":4537,"ages":4538,"terminal":4539,"sequence":4540,"borough":4541,"250":4542,"constituency":4543,"creative":4544,"cousin":4545,"economics":4546,"dreams":4547,"margaret":4548,"notably":4549,"reduce":4550,"montreal":4551,"mode":4552,"17th":4553,"ears":4554,"saved":4555,"jan":4556,"vocal":4557,"##ica":4558,"1909":4559,"andy":4560,"##jo":4561,"riding":4562,"roughly":4563,"threatened":4564,"##ise":4565,"meters":4566,"meanwhile":4567,"landed":4568,"compete":4569,"repeated":4570,"grass":4571,"czech":4572,"regularly":4573,"charges":4574,"tea":4575,"sudden":4576,"appeal":4577,"##ung":4578,"solution":4579,"describes":4580,"pierre":4581,"classification":4582,"glad":4583,"parking":4584,"##ning":4585,"belt":4586,"physics":4587,"99":4588,"rachel":4589,"add":4590,"hungarian":4591,"participate":4592,"expedition":4593,"damaged":4594,"gift":4595,"childhood":4596,"85":4597,"fifty":4598,"##red":4599,"mathematics":4600,"jumped":4601,"letting":4602,"defensive":4603,"mph":4604,"##ux":4605,"##gh":4606,"testing":4607,"##hip":4608,"hundreds":4609,"shoot":4610,"owners":4611,"matters":4612,"smoke":4613,"israeli":4614,"kentucky":4615,"dancing":4616,"mounted":4617,"grandfather":4618,"emma":4619,"designs":4620,"profit":4621,"argentina":4622,"##gs":4623,"truly":4624,"li":4625,"lawrence":4626,"cole":4627,"begun":4628,"detroit":4629,"willing":4630,"branches":4631,"smiling":4632,"decide":4633,"miami":4634,"enjoyed":4635,"recordings":4636,"##dale":4637,"poverty":4638,"ethnic":4639,"gay":4640,"##bi":4641,"gary":4642,"arabic":4643,"09":4644,"accompanied":4645,"##one":4646,"##ons":4647,"fishing":4648,"determine":4649,"residential":4650,"acid":4651,"##ary":4652,"alice":4653,"returns":4654,"starred":4655,"mail":4656,"##ang":4657,"jonathan":4658,"strategy":4659,"##ue":4660,"net":4661,"forty":4662,"cook":4663,"businesses":4664,"equivalent":4665,"commonwealth":4666,"distinct":4667,"ill":4668,"##cy":4669,"seriously":4670,"##ors":4671,"##ped":4672,"shift":4673,"harris":4674,"replace":4675,"rio":4676,"imagine":4677,"formula":4678,"ensure":4679,"##ber":4680,"additionally":4681,"scheme":4682,"conservation":4683,"occasionally":4684,"purposes":4685,"feels":4686,"favor":4687,"##and":4688,"##ore":4689,"1930s":4690,"contrast":4691,"hanging":4692,"hunt":4693,"movies":4694,"1904":4695,"instruments":4696,"victims":4697,"danish":4698,"christopher":4699,"busy":4700,"demon":4701,"sugar":4702,"earliest":4703,"colony":4704,"studying":4705,"balance":4706,"duties":4707,"##ks":4708,"belgium":4709,"slipped":4710,"carter":4711,"05":4712,"visible":4713,"stages":4714,"iraq":4715,"fifa":4716,"##im":4717,"commune":4718,"forming":4719,"zero":4720,"07":4721,"continuing":4722,"talked":4723,"counties":4724,"legend":4725,"bathroom":4726,"option":4727,"tail":4728,"clay":4729,"daughters":4730,"afterwards":4731,"severe":4732,"jaw":4733,"visitors":4734,"##ded":4735,"devices":4736,"aviation":4737,"russell":4738,"kate":4739,"##vi":4740,"entering":4741,"subjects":4742,"##ino":4743,"temporary":4744,"swimming":4745,"forth":4746,"smooth":4747,"ghost":4748,"audio":4749,"bush":4750,"operates":4751,"rocks":4752,"movements":4753,"signs":4754,"eddie":4755,"##tz":4756,"ann":4757,"voices":4758,"honorary":4759,"06":4760,"memories":4761,"dallas":4762,"pure":4763,"measures":4764,"racial":4765,"promised":4766,"66":4767,"harvard":4768,"ceo":4769,"16th":4770,"parliamentary":4771,"indicate":4772,"benefit":4773,"flesh":4774,"dublin":4775,"louisiana":4776,"1902":4777,"1901":4778,"patient":4779,"sleeping":4780,"1903":4781,"membership":4782,"coastal":4783,"medieval":4784,"wanting":4785,"element":4786,"scholars":4787,"rice":4788,"62":4789,"limit":4790,"survive":4791,"makeup":4792,"rating":4793,"definitely":4794,"collaboration":4795,"obvious":4796,"##tan":4797,"boss":4798,"ms":4799,"baron":4800,"birthday":4801,"linked":4802,"soil":4803,"diocese":4804,"##lan":4805,"ncaa":4806,"##mann":4807,"offensive":4808,"shell":4809,"shouldn":4810,"waist":4811,"##tus":4812,"plain":4813,"ross":4814,"organ":4815,"resolution":4816,"manufacturing":4817,"adding":4818,"relative":4819,"kennedy":4820,"98":4821,"whilst":4822,"moth":4823,"marketing":4824,"gardens":4825,"crash":4826,"72":4827,"heading":4828,"partners":4829,"credited":4830,"carlos":4831,"moves":4832,"cable":4833,"##zi":4834,"marshall":4835,"##out":4836,"depending":4837,"bottle":4838,"represents":4839,"rejected":4840,"responded":4841,"existed":4842,"04":4843,"jobs":4844,"denmark":4845,"lock":4846,"##ating":4847,"treated":4848,"graham":4849,"routes":4850,"talent":4851,"commissioner":4852,"drugs":4853,"secure":4854,"tests":4855,"reign":4856,"restored":4857,"photography":4858,"##gi":4859,"contributions":4860,"oklahoma":4861,"designer":4862,"disc":4863,"grin":4864,"seattle":4865,"robin":4866,"paused":4867,"atlanta":4868,"unusual":4869,"##gate":4870,"praised":4871,"las":4872,"laughing":4873,"satellite":4874,"hungary":4875,"visiting":4876,"##sky":4877,"interesting":4878,"factors":4879,"deck":4880,"poems":4881,"norman":4882,"##water":4883,"stuck":4884,"speaker":4885,"rifle":4886,"domain":4887,"premiered":4888,"##her":4889,"dc":4890,"comics":4891,"actors":4892,"01":4893,"reputation":4894,"eliminated":4895,"8th":4896,"ceiling":4897,"prisoners":4898,"script":4899,"##nce":4900,"leather":4901,"austin":4902,"mississippi":4903,"rapidly":4904,"admiral":4905,"parallel":4906,"charlotte":4907,"guilty":4908,"tools":4909,"gender":4910,"divisions":4911,"fruit":4912,"##bs":4913,"laboratory":4914,"nelson":4915,"fantasy":4916,"marry":4917,"rapid":4918,"aunt":4919,"tribe":4920,"requirements":4921,"aspects":4922,"suicide":4923,"amongst":4924,"adams":4925,"bone":4926,"ukraine":4927,"abc":4928,"kick":4929,"sees":4930,"edinburgh":4931,"clothing":4932,"column":4933,"rough":4934,"gods":4935,"hunting":4936,"broadway":4937,"gathered":4938,"concerns":4939,"##ek":4940,"spending":4941,"ty":4942,"12th":4943,"snapped":4944,"requires":4945,"solar":4946,"bones":4947,"cavalry":4948,"##tta":4949,"iowa":4950,"drinking":4951,"waste":4952,"index":4953,"franklin":4954,"charity":4955,"thompson":4956,"stewart":4957,"tip":4958,"flash":4959,"landscape":4960,"friday":4961,"enjoy":4962,"singh":4963,"poem":4964,"listening":4965,"##back":4966,"eighth":4967,"fred":4968,"differences":4969,"adapted":4970,"bomb":4971,"ukrainian":4972,"surgery":4973,"corporate":4974,"masters":4975,"anywhere":4976,"##more":4977,"waves":4978,"odd":4979,"sean":4980,"portugal":4981,"orleans":4982,"dick":4983,"debate":4984,"kent":4985,"eating":4986,"puerto":4987,"cleared":4988,"96":4989,"expect":4990,"cinema":4991,"97":4992,"guitarist":4993,"blocks":4994,"electrical":4995,"agree":4996,"involving":4997,"depth":4998,"dying":4999,"panel":5000,"struggle":5001,"##ged":5002,"peninsula":5003,"adults":5004,"novels":5005,"emerged":5006,"vienna":5007,"metro":5008,"debuted":5009,"shoes":5010,"tamil":5011,"songwriter":5012,"meets":5013,"prove":5014,"beating":5015,"instance":5016,"heaven":5017,"scared":5018,"sending":5019,"marks":5020,"artistic":5021,"passage":5022,"superior":5023,"03":5024,"significantly":5025,"shopping":5026,"##tive":5027,"retained":5028,"##izing":5029,"malaysia":5030,"technique":5031,"cheeks":5032,"##ola":5033,"warren":5034,"maintenance":5035,"destroy":5036,"extreme":5037,"allied":5038,"120":5039,"appearing":5040,"##yn":5041,"fill":5042,"advice":5043,"alabama":5044,"qualifying":5045,"policies":5046,"cleveland":5047,"hat":5048,"battery":5049,"smart":5050,"authors":5051,"10th":5052,"soundtrack":5053,"acted":5054,"dated":5055,"lb":5056,"glance":5057,"equipped":5058,"coalition":5059,"funny":5060,"outer":5061,"ambassador":5062,"roy":5063,"possibility":5064,"couples":5065,"campbell":5066,"dna":5067,"loose":5068,"ethan":5069,"supplies":5070,"1898":5071,"gonna":5072,"88":5073,"monster":5074,"##res":5075,"shake":5076,"agents":5077,"frequency":5078,"springs":5079,"dogs":5080,"practices":5081,"61":5082,"gang":5083,"plastic":5084,"easier":5085,"suggests":5086,"gulf":5087,"blade":5088,"exposed":5089,"colors":5090,"industries":5091,"markets":5092,"pan":5093,"nervous":5094,"electoral":5095,"charts":5096,"legislation":5097,"ownership":5098,"##idae":5099,"mac":5100,"appointment":5101,"shield":5102,"copy":5103,"assault":5104,"socialist":5105,"abbey":5106,"monument":5107,"license":5108,"throne":5109,"employment":5110,"jay":5111,"93":5112,"replacement":5113,"charter":5114,"cloud":5115,"powered":5116,"suffering":5117,"accounts":5118,"oak":5119,"connecticut":5120,"strongly":5121,"wright":5122,"colour":5123,"crystal":5124,"13th":5125,"context":5126,"welsh":5127,"networks":5128,"voiced":5129,"gabriel":5130,"jerry":5131,"##cing":5132,"forehead":5133,"mp":5134,"##ens":5135,"manage":5136,"schedule":5137,"totally":5138,"remix":5139,"##ii":5140,"forests":5141,"occupation":5142,"print":5143,"nicholas":5144,"brazilian":5145,"strategic":5146,"vampires":5147,"engineers":5148,"76":5149,"roots":5150,"seek":5151,"correct":5152,"instrumental":5153,"und":5154,"alfred":5155,"backed":5156,"hop":5157,"##des":5158,"stanley":5159,"robinson":5160,"traveled":5161,"wayne":5162,"welcome":5163,"austrian":5164,"achieve":5165,"67":5166,"exit":5167,"rates":5168,"1899":5169,"strip":5170,"whereas":5171,"##cs":5172,"sing":5173,"deeply":5174,"adventure":5175,"bobby":5176,"rick":5177,"jamie":5178,"careful":5179,"components":5180,"cap":5181,"useful":5182,"personality":5183,"knee":5184,"##shi":5185,"pushing":5186,"hosts":5187,"02":5188,"protest":5189,"ca":5190,"ottoman":5191,"symphony":5192,"##sis":5193,"63":5194,"boundary":5195,"1890":5196,"processes":5197,"considering":5198,"considerable":5199,"tons":5200,"##work":5201,"##ft":5202,"##nia":5203,"cooper":5204,"trading":5205,"dear":5206,"conduct":5207,"91":5208,"illegal":5209,"apple":5210,"revolutionary":5211,"holiday":5212,"definition":5213,"harder":5214,"##van":5215,"jacob":5216,"circumstances":5217,"destruction":5218,"##lle":5219,"popularity":5220,"grip":5221,"classified":5222,"liverpool":5223,"donald":5224,"baltimore":5225,"flows":5226,"seeking":5227,"honour":5228,"approval":5229,"92":5230,"mechanical":5231,"till":5232,"happening":5233,"statue":5234,"critic":5235,"increasingly":5236,"immediate":5237,"describe":5238,"commerce":5239,"stare":5240,"##ster":5241,"indonesia":5242,"meat":5243,"rounds":5244,"boats":5245,"baker":5246,"orthodox":5247,"depression":5248,"formally":5249,"worn":5250,"naked":5251,"claire":5252,"muttered":5253,"sentence":5254,"11th":5255,"emily":5256,"document":5257,"77":5258,"criticism":5259,"wished":5260,"vessel":5261,"spiritual":5262,"bent":5263,"virgin":5264,"parker":5265,"minimum":5266,"murray":5267,"lunch":5268,"danny":5269,"printed":5270,"compilation":5271,"keyboards":5272,"false":5273,"blow":5274,"belonged":5275,"68":5276,"raising":5277,"78":5278,"cutting":5279,"##board":5280,"pittsburgh":5281,"##up":5282,"9th":5283,"shadows":5284,"81":5285,"hated":5286,"indigenous":5287,"jon":5288,"15th":5289,"barry":5290,"scholar":5291,"ah":5292,"##zer":5293,"oliver":5294,"##gy":5295,"stick":5296,"susan":5297,"meetings":5298,"attracted":5299,"spell":5300,"romantic":5301,"##ver":5302,"ye":5303,"1895":5304,"photo":5305,"demanded":5306,"customers":5307,"##ac":5308,"1896":5309,"logan":5310,"revival":5311,"keys":5312,"modified":5313,"commanded":5314,"jeans":5315,"##ious":5316,"upset":5317,"raw":5318,"phil":5319,"detective":5320,"hiding":5321,"resident":5322,"vincent":5323,"##bly":5324,"experiences":5325,"diamond":5326,"defeating":5327,"coverage":5328,"lucas":5329,"external":5330,"parks":5331,"franchise":5332,"helen":5333,"bible":5334,"successor":5335,"percussion":5336,"celebrated":5337,"il":5338,"lift":5339,"profile":5340,"clan":5341,"romania":5342,"##ied":5343,"mills":5344,"##su":5345,"nobody":5346,"achievement":5347,"shrugged":5348,"fault":5349,"1897":5350,"rhythm":5351,"initiative":5352,"breakfast":5353,"carbon":5354,"700":5355,"69":5356,"lasted":5357,"violent":5358,"74":5359,"wound":5360,"ken":5361,"killer":5362,"gradually":5363,"filmed":5364,"°c":5365,"dollars":5366,"processing":5367,"94":5368,"remove":5369,"criticized":5370,"guests":5371,"sang":5372,"chemistry":5373,"##vin":5374,"legislature":5375,"disney":5376,"##bridge":5377,"uniform":5378,"escaped":5379,"integrated":5380,"proposal":5381,"purple":5382,"denied":5383,"liquid":5384,"karl":5385,"influential":5386,"morris":5387,"nights":5388,"stones":5389,"intense":5390,"experimental":5391,"twisted":5392,"71":5393,"84":5394,"##ld":5395,"pace":5396,"nazi":5397,"mitchell":5398,"ny":5399,"blind":5400,"reporter":5401,"newspapers":5402,"14th":5403,"centers":5404,"burn":5405,"basin":5406,"forgotten":5407,"surviving":5408,"filed":5409,"collections":5410,"monastery":5411,"losses":5412,"manual":5413,"couch":5414,"description":5415,"appropriate":5416,"merely":5417,"tag":5418,"missions":5419,"sebastian":5420,"restoration":5421,"replacing":5422,"triple":5423,"73":5424,"elder":5425,"julia":5426,"warriors":5427,"benjamin":5428,"julian":5429,"convinced":5430,"stronger":5431,"amazing":5432,"declined":5433,"versus":5434,"merchant":5435,"happens":5436,"output":5437,"finland":5438,"bare":5439,"barbara":5440,"absence":5441,"ignored":5442,"dawn":5443,"injuries":5444,"##port":5445,"producers":5446,"##ram":5447,"82":5448,"luis":5449,"##ities":5450,"kw":5451,"admit":5452,"expensive":5453,"electricity":5454,"nba":5455,"exception":5456,"symbol":5457,"##ving":5458,"ladies":5459,"shower":5460,"sheriff":5461,"characteristics":5462,"##je":5463,"aimed":5464,"button":5465,"ratio":5466,"effectively":5467,"summit":5468,"angle":5469,"jury":5470,"bears":5471,"foster":5472,"vessels":5473,"pants":5474,"executed":5475,"evans":5476,"dozen":5477,"advertising":5478,"kicked":5479,"patrol":5480,"1889":5481,"competitions":5482,"lifetime":5483,"principles":5484,"athletics":5485,"##logy":5486,"birmingham":5487,"sponsored":5488,"89":5489,"rob":5490,"nomination":5491,"1893":5492,"acoustic":5493,"##sm":5494,"creature":5495,"longest":5496,"##tra":5497,"credits":5498,"harbor":5499,"dust":5500,"josh":5501,"##so":5502,"territories":5503,"milk":5504,"infrastructure":5505,"completion":5506,"thailand":5507,"indians":5508,"leon":5509,"archbishop":5510,"##sy":5511,"assist":5512,"pitch":5513,"blake":5514,"arrangement":5515,"girlfriend":5516,"serbian":5517,"operational":5518,"hence":5519,"sad":5520,"scent":5521,"fur":5522,"dj":5523,"sessions":5524,"hp":5525,"refer":5526,"rarely":5527,"##ora":5528,"exists":5529,"1892":5530,"##ten":5531,"scientists":5532,"dirty":5533,"penalty":5534,"burst":5535,"portrait":5536,"seed":5537,"79":5538,"pole":5539,"limits":5540,"rival":5541,"1894":5542,"stable":5543,"alpha":5544,"grave":5545,"constitutional":5546,"alcohol":5547,"arrest":5548,"flower":5549,"mystery":5550,"devil":5551,"architectural":5552,"relationships":5553,"greatly":5554,"habitat":5555,"##istic":5556,"larry":5557,"progressive":5558,"remote":5559,"cotton":5560,"##ics":5561,"##ok":5562,"preserved":5563,"reaches":5564,"##ming":5565,"cited":5566,"86":5567,"vast":5568,"scholarship":5569,"decisions":5570,"cbs":5571,"joy":5572,"teach":5573,"1885":5574,"editions":5575,"knocked":5576,"eve":5577,"searching":5578,"partly":5579,"participation":5580,"gap":5581,"animated":5582,"fate":5583,"excellent":5584,"##ett":5585,"na":5586,"87":5587,"alternate":5588,"saints":5589,"youngest":5590,"##ily":5591,"climbed":5592,"##ita":5593,"##tors":5594,"suggest":5595,"##ct":5596,"discussion":5597,"staying":5598,"choir":5599,"lakes":5600,"jacket":5601,"revenue":5602,"nevertheless":5603,"peaked":5604,"instrument":5605,"wondering":5606,"annually":5607,"managing":5608,"neil":5609,"1891":5610,"signing":5611,"terry":5612,"##ice":5613,"apply":5614,"clinical":5615,"brooklyn":5616,"aim":5617,"catherine":5618,"fuck":5619,"farmers":5620,"figured":5621,"ninth":5622,"pride":5623,"hugh":5624,"evolution":5625,"ordinary":5626,"involvement":5627,"comfortable":5628,"shouted":5629,"tech":5630,"encouraged":5631,"taiwan":5632,"representation":5633,"sharing":5634,"##lia":5635,"##em":5636,"panic":5637,"exact":5638,"cargo":5639,"competing":5640,"fat":5641,"cried":5642,"83":5643,"1920s":5644,"occasions":5645,"pa":5646,"cabin":5647,"borders":5648,"utah":5649,"marcus":5650,"##isation":5651,"badly":5652,"muscles":5653,"##ance":5654,"victorian":5655,"transition":5656,"warner":5657,"bet":5658,"permission":5659,"##rin":5660,"slave":5661,"terrible":5662,"similarly":5663,"shares":5664,"seth":5665,"uefa":5666,"possession":5667,"medals":5668,"benefits":5669,"colleges":5670,"lowered":5671,"perfectly":5672,"mall":5673,"transit":5674,"##ye":5675,"##kar":5676,"publisher":5677,"##ened":5678,"harrison":5679,"deaths":5680,"elevation":5681,"##ae":5682,"asleep":5683,"machines":5684,"sigh":5685,"ash":5686,"hardly":5687,"argument":5688,"occasion":5689,"parent":5690,"leo":5691,"decline":5692,"1888":5693,"contribution":5694,"##ua":5695,"concentration":5696,"1000":5697,"opportunities":5698,"hispanic":5699,"guardian":5700,"extent":5701,"emotions":5702,"hips":5703,"mason":5704,"volumes":5705,"bloody":5706,"controversy":5707,"diameter":5708,"steady":5709,"mistake":5710,"phoenix":5711,"identify":5712,"violin":5713,"##sk":5714,"departure":5715,"richmond":5716,"spin":5717,"funeral":5718,"enemies":5719,"1864":5720,"gear":5721,"literally":5722,"connor":5723,"random":5724,"sergeant":5725,"grab":5726,"confusion":5727,"1865":5728,"transmission":5729,"informed":5730,"op":5731,"leaning":5732,"sacred":5733,"suspended":5734,"thinks":5735,"gates":5736,"portland":5737,"luck":5738,"agencies":5739,"yours":5740,"hull":5741,"expert":5742,"muscle":5743,"layer":5744,"practical":5745,"sculpture":5746,"jerusalem":5747,"latest":5748,"lloyd":5749,"statistics":5750,"deeper":5751,"recommended":5752,"warrior":5753,"arkansas":5754,"mess":5755,"supports":5756,"greg":5757,"eagle":5758,"1880":5759,"recovered":5760,"rated":5761,"concerts":5762,"rushed":5763,"##ano":5764,"stops":5765,"eggs":5766,"files":5767,"premiere":5768,"keith":5769,"##vo":5770,"delhi":5771,"turner":5772,"pit":5773,"affair":5774,"belief":5775,"paint":5776,"##zing":5777,"mate":5778,"##ach":5779,"##ev":5780,"victim":5781,"##ology":5782,"withdrew":5783,"bonus":5784,"styles":5785,"fled":5786,"##ud":5787,"glasgow":5788,"technologies":5789,"funded":5790,"nbc":5791,"adaptation":5792,"##ata":5793,"portrayed":5794,"cooperation":5795,"supporters":5796,"judges":5797,"bernard":5798,"justin":5799,"hallway":5800,"ralph":5801,"##ick":5802,"graduating":5803,"controversial":5804,"distant":5805,"continental":5806,"spider":5807,"bite":5808,"##ho":5809,"recognize":5810,"intention":5811,"mixing":5812,"##ese":5813,"egyptian":5814,"bow":5815,"tourism":5816,"suppose":5817,"claiming":5818,"tiger":5819,"dominated":5820,"participants":5821,"vi":5822,"##ru":5823,"nurse":5824,"partially":5825,"tape":5826,"##rum":5827,"psychology":5828,"##rn":5829,"essential":5830,"touring":5831,"duo":5832,"voting":5833,"civilian":5834,"emotional":5835,"channels":5836,"##king":5837,"apparent":5838,"hebrew":5839,"1887":5840,"tommy":5841,"carrier":5842,"intersection":5843,"beast":5844,"hudson":5845,"##gar":5846,"##zo":5847,"lab":5848,"nova":5849,"bench":5850,"discuss":5851,"costa":5852,"##ered":5853,"detailed":5854,"behalf":5855,"drivers":5856,"unfortunately":5857,"obtain":5858,"##lis":5859,"rocky":5860,"##dae":5861,"siege":5862,"friendship":5863,"honey":5864,"##rian":5865,"1861":5866,"amy":5867,"hang":5868,"posted":5869,"governments":5870,"collins":5871,"respond":5872,"wildlife":5873,"preferred":5874,"operator":5875,"##po":5876,"laura":5877,"pregnant":5878,"videos":5879,"dennis":5880,"suspected":5881,"boots":5882,"instantly":5883,"weird":5884,"automatic":5885,"businessman":5886,"alleged":5887,"placing":5888,"throwing":5889,"ph":5890,"mood":5891,"1862":5892,"perry":5893,"venue":5894,"jet":5895,"remainder":5896,"##lli":5897,"##ci":5898,"passion":5899,"biological":5900,"boyfriend":5901,"1863":5902,"dirt":5903,"buffalo":5904,"ron":5905,"segment":5906,"fa":5907,"abuse":5908,"##era":5909,"genre":5910,"thrown":5911,"stroke":5912,"colored":5913,"stress":5914,"exercise":5915,"displayed":5916,"##gen":5917,"struggled":5918,"##tti":5919,"abroad":5920,"dramatic":5921,"wonderful":5922,"thereafter":5923,"madrid":5924,"component":5925,"widespread":5926,"##sed":5927,"tale":5928,"citizen":5929,"todd":5930,"monday":5931,"1886":5932,"vancouver":5933,"overseas":5934,"forcing":5935,"crying":5936,"descent":5937,"##ris":5938,"discussed":5939,"substantial":5940,"ranks":5941,"regime":5942,"1870":5943,"provinces":5944,"switch":5945,"drum":5946,"zane":5947,"ted":5948,"tribes":5949,"proof":5950,"lp":5951,"cream":5952,"researchers":5953,"volunteer":5954,"manor":5955,"silk":5956,"milan":5957,"donated":5958,"allies":5959,"venture":5960,"principle":5961,"delivery":5962,"enterprise":5963,"##ves":5964,"##ans":5965,"bars":5966,"traditionally":5967,"witch":5968,"reminded":5969,"copper":5970,"##uk":5971,"pete":5972,"inter":5973,"links":5974,"colin":5975,"grinned":5976,"elsewhere":5977,"competitive":5978,"frequent":5979,"##oy":5980,"scream":5981,"##hu":5982,"tension":5983,"texts":5984,"submarine":5985,"finnish":5986,"defending":5987,"defend":5988,"pat":5989,"detail":5990,"1884":5991,"affiliated":5992,"stuart":5993,"themes":5994,"villa":5995,"periods":5996,"tool":5997,"belgian":5998,"ruling":5999,"crimes":6000,"answers":6001,"folded":6002,"licensed":6003,"resort":6004,"demolished":6005,"hans":6006,"lucy":6007,"1881":6008,"lion":6009,"traded":6010,"photographs":6011,"writes":6012,"craig":6013,"##fa":6014,"trials":6015,"generated":6016,"beth":6017,"noble":6018,"debt":6019,"percentage":6020,"yorkshire":6021,"erected":6022,"ss":6023,"viewed":6024,"grades":6025,"confidence":6026,"ceased":6027,"islam":6028,"telephone":6029,"retail":6030,"##ible":6031,"chile":6032,"m²":6033,"roberts":6034,"sixteen":6035,"##ich":6036,"commented":6037,"hampshire":6038,"innocent":6039,"dual":6040,"pounds":6041,"checked":6042,"regulations":6043,"afghanistan":6044,"sung":6045,"rico":6046,"liberty":6047,"assets":6048,"bigger":6049,"options":6050,"angels":6051,"relegated":6052,"tribute":6053,"wells":6054,"attending":6055,"leaf":6056,"##yan":6057,"butler":6058,"romanian":6059,"forum":6060,"monthly":6061,"lisa":6062,"patterns":6063,"gmina":6064,"##tory":6065,"madison":6066,"hurricane":6067,"rev":6068,"##ians":6069,"bristol":6070,"##ula":6071,"elite":6072,"valuable":6073,"disaster":6074,"democracy":6075,"awareness":6076,"germans":6077,"freyja":6078,"##ins":6079,"loop":6080,"absolutely":6081,"paying":6082,"populations":6083,"maine":6084,"sole":6085,"prayer":6086,"spencer":6087,"releases":6088,"doorway":6089,"bull":6090,"##ani":6091,"lover":6092,"midnight":6093,"conclusion":6094,"##sson":6095,"thirteen":6096,"lily":6097,"mediterranean":6098,"##lt":6099,"nhl":6100,"proud":6101,"sample":6102,"##hill":6103,"drummer":6104,"guinea":6105,"##ova":6106,"murphy":6107,"climb":6108,"##ston":6109,"instant":6110,"attributed":6111,"horn":6112,"ain":6113,"railways":6114,"steven":6115,"##ao":6116,"autumn":6117,"ferry":6118,"opponent":6119,"root":6120,"traveling":6121,"secured":6122,"corridor":6123,"stretched":6124,"tales":6125,"sheet":6126,"trinity":6127,"cattle":6128,"helps":6129,"indicates":6130,"manhattan":6131,"murdered":6132,"fitted":6133,"1882":6134,"gentle":6135,"grandmother":6136,"mines":6137,"shocked":6138,"vegas":6139,"produces":6140,"##light":6141,"caribbean":6142,"##ou":6143,"belong":6144,"continuous":6145,"desperate":6146,"drunk":6147,"historically":6148,"trio":6149,"waved":6150,"raf":6151,"dealing":6152,"nathan":6153,"bat":6154,"murmured":6155,"interrupted":6156,"residing":6157,"scientist":6158,"pioneer":6159,"harold":6160,"aaron":6161,"##net":6162,"delta":6163,"attempting":6164,"minority":6165,"mini":6166,"believes":6167,"chorus":6168,"tend":6169,"lots":6170,"eyed":6171,"indoor":6172,"load":6173,"shots":6174,"updated":6175,"jail":6176,"##llo":6177,"concerning":6178,"connecting":6179,"wealth":6180,"##ved":6181,"slaves":6182,"arrive":6183,"rangers":6184,"sufficient":6185,"rebuilt":6186,"##wick":6187,"cardinal":6188,"flood":6189,"muhammad":6190,"whenever":6191,"relation":6192,"runners":6193,"moral":6194,"repair":6195,"viewers":6196,"arriving":6197,"revenge":6198,"punk":6199,"assisted":6200,"bath":6201,"fairly":6202,"breathe":6203,"lists":6204,"innings":6205,"illustrated":6206,"whisper":6207,"nearest":6208,"voters":6209,"clinton":6210,"ties":6211,"ultimate":6212,"screamed":6213,"beijing":6214,"lions":6215,"andre":6216,"fictional":6217,"gathering":6218,"comfort":6219,"radar":6220,"suitable":6221,"dismissed":6222,"hms":6223,"ban":6224,"pine":6225,"wrist":6226,"atmosphere":6227,"voivodeship":6228,"bid":6229,"timber":6230,"##ned":6231,"##nan":6232,"giants":6233,"##ane":6234,"cameron":6235,"recovery":6236,"uss":6237,"identical":6238,"categories":6239,"switched":6240,"serbia":6241,"laughter":6242,"noah":6243,"ensemble":6244,"therapy":6245,"peoples":6246,"touching":6247,"##off":6248,"locally":6249,"pearl":6250,"platforms":6251,"everywhere":6252,"ballet":6253,"tables":6254,"lanka":6255,"herbert":6256,"outdoor":6257,"toured":6258,"derek":6259,"1883":6260,"spaces":6261,"contested":6262,"swept":6263,"1878":6264,"exclusive":6265,"slight":6266,"connections":6267,"##dra":6268,"winds":6269,"prisoner":6270,"collective":6271,"bangladesh":6272,"tube":6273,"publicly":6274,"wealthy":6275,"thai":6276,"##ys":6277,"isolated":6278,"select":6279,"##ric":6280,"insisted":6281,"pen":6282,"fortune":6283,"ticket":6284,"spotted":6285,"reportedly":6286,"animation":6287,"enforcement":6288,"tanks":6289,"110":6290,"decides":6291,"wider":6292,"lowest":6293,"owen":6294,"##time":6295,"nod":6296,"hitting":6297,"##hn":6298,"gregory":6299,"furthermore":6300,"magazines":6301,"fighters":6302,"solutions":6303,"##ery":6304,"pointing":6305,"requested":6306,"peru":6307,"reed":6308,"chancellor":6309,"knights":6310,"mask":6311,"worker":6312,"eldest":6313,"flames":6314,"reduction":6315,"1860":6316,"volunteers":6317,"##tis":6318,"reporting":6319,"##hl":6320,"wire":6321,"advisory":6322,"endemic":6323,"origins":6324,"settlers":6325,"pursue":6326,"knock":6327,"consumer":6328,"1876":6329,"eu":6330,"compound":6331,"creatures":6332,"mansion":6333,"sentenced":6334,"ivan":6335,"deployed":6336,"guitars":6337,"frowned":6338,"involves":6339,"mechanism":6340,"kilometers":6341,"perspective":6342,"shops":6343,"maps":6344,"terminus":6345,"duncan":6346,"alien":6347,"fist":6348,"bridges":6349,"##pers":6350,"heroes":6351,"fed":6352,"derby":6353,"swallowed":6354,"##ros":6355,"patent":6356,"sara":6357,"illness":6358,"characterized":6359,"adventures":6360,"slide":6361,"hawaii":6362,"jurisdiction":6363,"##op":6364,"organised":6365,"##side":6366,"adelaide":6367,"walks":6368,"biology":6369,"se":6370,"##ties":6371,"rogers":6372,"swing":6373,"tightly":6374,"boundaries":6375,"##rie":6376,"prepare":6377,"implementation":6378,"stolen":6379,"##sha":6380,"certified":6381,"colombia":6382,"edwards":6383,"garage":6384,"##mm":6385,"recalled":6386,"##ball":6387,"rage":6388,"harm":6389,"nigeria":6390,"breast":6391,"##ren":6392,"furniture":6393,"pupils":6394,"settle":6395,"##lus":6396,"cuba":6397,"balls":6398,"client":6399,"alaska":6400,"21st":6401,"linear":6402,"thrust":6403,"celebration":6404,"latino":6405,"genetic":6406,"terror":6407,"##cia":6408,"##ening":6409,"lightning":6410,"fee":6411,"witness":6412,"lodge":6413,"establishing":6414,"skull":6415,"##ique":6416,"earning":6417,"hood":6418,"##ei":6419,"rebellion":6420,"wang":6421,"sporting":6422,"warned":6423,"missile":6424,"devoted":6425,"activist":6426,"porch":6427,"worship":6428,"fourteen":6429,"package":6430,"1871":6431,"decorated":6432,"##shire":6433,"housed":6434,"##ock":6435,"chess":6436,"sailed":6437,"doctors":6438,"oscar":6439,"joan":6440,"treat":6441,"garcia":6442,"harbour":6443,"jeremy":6444,"##ire":6445,"traditions":6446,"dominant":6447,"jacques":6448,"##gon":6449,"##wan":6450,"relocated":6451,"1879":6452,"amendment":6453,"sized":6454,"companion":6455,"simultaneously":6456,"volleyball":6457,"spun":6458,"acre":6459,"increases":6460,"stopping":6461,"loves":6462,"belongs":6463,"affect":6464,"drafted":6465,"tossed":6466,"scout":6467,"battles":6468,"1875":6469,"filming":6470,"shoved":6471,"munich":6472,"tenure":6473,"vertical":6474,"romance":6475,"pc":6476,"##cher":6477,"argue":6478,"##ical":6479,"craft":6480,"ranging":6481,"www":6482,"opens":6483,"honest":6484,"tyler":6485,"yesterday":6486,"virtual":6487,"##let":6488,"muslims":6489,"reveal":6490,"snake":6491,"immigrants":6492,"radical":6493,"screaming":6494,"speakers":6495,"firing":6496,"saving":6497,"belonging":6498,"ease":6499,"lighting":6500,"prefecture":6501,"blame":6502,"farmer":6503,"hungry":6504,"grows":6505,"rubbed":6506,"beam":6507,"sur":6508,"subsidiary":6509,"##cha":6510,"armenian":6511,"sao":6512,"dropping":6513,"conventional":6514,"##fer":6515,"microsoft":6516,"reply":6517,"qualify":6518,"spots":6519,"1867":6520,"sweat":6521,"festivals":6522,"##ken":6523,"immigration":6524,"physician":6525,"discover":6526,"exposure":6527,"sandy":6528,"explanation":6529,"isaac":6530,"implemented":6531,"##fish":6532,"hart":6533,"initiated":6534,"connect":6535,"stakes":6536,"presents":6537,"heights":6538,"householder":6539,"pleased":6540,"tourist":6541,"regardless":6542,"slip":6543,"closest":6544,"##ction":6545,"surely":6546,"sultan":6547,"brings":6548,"riley":6549,"preparation":6550,"aboard":6551,"slammed":6552,"baptist":6553,"experiment":6554,"ongoing":6555,"interstate":6556,"organic":6557,"playoffs":6558,"##ika":6559,"1877":6560,"130":6561,"##tar":6562,"hindu":6563,"error":6564,"tours":6565,"tier":6566,"plenty":6567,"arrangements":6568,"talks":6569,"trapped":6570,"excited":6571,"sank":6572,"ho":6573,"athens":6574,"1872":6575,"denver":6576,"welfare":6577,"suburb":6578,"athletes":6579,"trick":6580,"diverse":6581,"belly":6582,"exclusively":6583,"yelled":6584,"1868":6585,"##med":6586,"conversion":6587,"##ette":6588,"1874":6589,"internationally":6590,"computers":6591,"conductor":6592,"abilities":6593,"sensitive":6594,"hello":6595,"dispute":6596,"measured":6597,"globe":6598,"rocket":6599,"prices":6600,"amsterdam":6601,"flights":6602,"tigers":6603,"inn":6604,"municipalities":6605,"emotion":6606,"references":6607,"3d":6608,"##mus":6609,"explains":6610,"airlines":6611,"manufactured":6612,"pm":6613,"archaeological":6614,"1873":6615,"interpretation":6616,"devon":6617,"comment":6618,"##ites":6619,"settlements":6620,"kissing":6621,"absolute":6622,"improvement":6623,"suite":6624,"impressed":6625,"barcelona":6626,"sullivan":6627,"jefferson":6628,"towers":6629,"jesse":6630,"julie":6631,"##tin":6632,"##lu":6633,"grandson":6634,"hi":6635,"gauge":6636,"regard":6637,"rings":6638,"interviews":6639,"trace":6640,"raymond":6641,"thumb":6642,"departments":6643,"burns":6644,"serial":6645,"bulgarian":6646,"scores":6647,"demonstrated":6648,"##ix":6649,"1866":6650,"kyle":6651,"alberta":6652,"underneath":6653,"romanized":6654,"##ward":6655,"relieved":6656,"acquisition":6657,"phrase":6658,"cliff":6659,"reveals":6660,"han":6661,"cuts":6662,"merger":6663,"custom":6664,"##dar":6665,"nee":6666,"gilbert":6667,"graduation":6668,"##nts":6669,"assessment":6670,"cafe":6671,"difficulty":6672,"demands":6673,"swung":6674,"democrat":6675,"jennifer":6676,"commons":6677,"1940s":6678,"grove":6679,"##yo":6680,"completing":6681,"focuses":6682,"sum":6683,"substitute":6684,"bearing":6685,"stretch":6686,"reception":6687,"##py":6688,"reflected":6689,"essentially":6690,"destination":6691,"pairs":6692,"##ched":6693,"survival":6694,"resource":6695,"##bach":6696,"promoting":6697,"doubles":6698,"messages":6699,"tear":6700,"##down":6701,"##fully":6702,"parade":6703,"florence":6704,"harvey":6705,"incumbent":6706,"partial":6707,"framework":6708,"900":6709,"pedro":6710,"frozen":6711,"procedure":6712,"olivia":6713,"controls":6714,"##mic":6715,"shelter":6716,"personally":6717,"temperatures":6718,"##od":6719,"brisbane":6720,"tested":6721,"sits":6722,"marble":6723,"comprehensive":6724,"oxygen":6725,"leonard":6726,"##kov":6727,"inaugural":6728,"iranian":6729,"referring":6730,"quarters":6731,"attitude":6732,"##ivity":6733,"mainstream":6734,"lined":6735,"mars":6736,"dakota":6737,"norfolk":6738,"unsuccessful":6739,"##°":6740,"explosion":6741,"helicopter":6742,"congressional":6743,"##sing":6744,"inspector":6745,"bitch":6746,"seal":6747,"departed":6748,"divine":6749,"##ters":6750,"coaching":6751,"examination":6752,"punishment":6753,"manufacturer":6754,"sink":6755,"columns":6756,"unincorporated":6757,"signals":6758,"nevada":6759,"squeezed":6760,"dylan":6761,"dining":6762,"photos":6763,"martial":6764,"manuel":6765,"eighteen":6766,"elevator":6767,"brushed":6768,"plates":6769,"ministers":6770,"ivy":6771,"congregation":6772,"##len":6773,"slept":6774,"specialized":6775,"taxes":6776,"curve":6777,"restricted":6778,"negotiations":6779,"likes":6780,"statistical":6781,"arnold":6782,"inspiration":6783,"execution":6784,"bold":6785,"intermediate":6786,"significance":6787,"margin":6788,"ruler":6789,"wheels":6790,"gothic":6791,"intellectual":6792,"dependent":6793,"listened":6794,"eligible":6795,"buses":6796,"widow":6797,"syria":6798,"earn":6799,"cincinnati":6800,"collapsed":6801,"recipient":6802,"secrets":6803,"accessible":6804,"philippine":6805,"maritime":6806,"goddess":6807,"clerk":6808,"surrender":6809,"breaks":6810,"playoff":6811,"database":6812,"##ified":6813,"##lon":6814,"ideal":6815,"beetle":6816,"aspect":6817,"soap":6818,"regulation":6819,"strings":6820,"expand":6821,"anglo":6822,"shorter":6823,"crosses":6824,"retreat":6825,"tough":6826,"coins":6827,"wallace":6828,"directions":6829,"pressing":6830,"##oon":6831,"shipping":6832,"locomotives":6833,"comparison":6834,"topics":6835,"nephew":6836,"##mes":6837,"distinction":6838,"honors":6839,"travelled":6840,"sierra":6841,"ibn":6842,"##over":6843,"fortress":6844,"sa":6845,"recognised":6846,"carved":6847,"1869":6848,"clients":6849,"##dan":6850,"intent":6851,"##mar":6852,"coaches":6853,"describing":6854,"bread":6855,"##ington":6856,"beaten":6857,"northwestern":6858,"##ona":6859,"merit":6860,"youtube":6861,"collapse":6862,"challenges":6863,"em":6864,"historians":6865,"objective":6866,"submitted":6867,"virus":6868,"attacking":6869,"drake":6870,"assume":6871,"##ere":6872,"diseases":6873,"marc":6874,"stem":6875,"leeds":6876,"##cus":6877,"##ab":6878,"farming":6879,"glasses":6880,"##lock":6881,"visits":6882,"nowhere":6883,"fellowship":6884,"relevant":6885,"carries":6886,"restaurants":6887,"experiments":6888,"101":6889,"constantly":6890,"bases":6891,"targets":6892,"shah":6893,"tenth":6894,"opponents":6895,"verse":6896,"territorial":6897,"##ira":6898,"writings":6899,"corruption":6900,"##hs":6901,"instruction":6902,"inherited":6903,"reverse":6904,"emphasis":6905,"##vic":6906,"employee":6907,"arch":6908,"keeps":6909,"rabbi":6910,"watson":6911,"payment":6912,"uh":6913,"##ala":6914,"nancy":6915,"##tre":6916,"venice":6917,"fastest":6918,"sexy":6919,"banned":6920,"adrian":6921,"properly":6922,"ruth":6923,"touchdown":6924,"dollar":6925,"boards":6926,"metre":6927,"circles":6928,"edges":6929,"favour":6930,"comments":6931,"ok":6932,"travels":6933,"liberation":6934,"scattered":6935,"firmly":6936,"##ular":6937,"holland":6938,"permitted":6939,"diesel":6940,"kenya":6941,"den":6942,"originated":6943,"##ral":6944,"demons":6945,"resumed":6946,"dragged":6947,"rider":6948,"##rus":6949,"servant":6950,"blinked":6951,"extend":6952,"torn":6953,"##ias":6954,"##sey":6955,"input":6956,"meal":6957,"everybody":6958,"cylinder":6959,"kinds":6960,"camps":6961,"##fe":6962,"bullet":6963,"logic":6964,"##wn":6965,"croatian":6966,"evolved":6967,"healthy":6968,"fool":6969,"chocolate":6970,"wise":6971,"preserve":6972,"pradesh":6973,"##ess":6974,"respective":6975,"1850":6976,"##ew":6977,"chicken":6978,"artificial":6979,"gross":6980,"corresponding":6981,"convicted":6982,"cage":6983,"caroline":6984,"dialogue":6985,"##dor":6986,"narrative":6987,"stranger":6988,"mario":6989,"br":6990,"christianity":6991,"failing":6992,"trent":6993,"commanding":6994,"buddhist":6995,"1848":6996,"maurice":6997,"focusing":6998,"yale":6999,"bike":7000,"altitude":7001,"##ering":7002,"mouse":7003,"revised":7004,"##sley":7005,"veteran":7006,"##ig":7007,"pulls":7008,"theology":7009,"crashed":7010,"campaigns":7011,"legion":7012,"##ability":7013,"drag":7014,"excellence":7015,"customer":7016,"cancelled":7017,"intensity":7018,"excuse":7019,"##lar":7020,"liga":7021,"participating":7022,"contributing":7023,"printing":7024,"##burn":7025,"variable":7026,"##rk":7027,"curious":7028,"bin":7029,"legacy":7030,"renaissance":7031,"##my":7032,"symptoms":7033,"binding":7034,"vocalist":7035,"dancer":7036,"##nie":7037,"grammar":7038,"gospel":7039,"democrats":7040,"ya":7041,"enters":7042,"sc":7043,"diplomatic":7044,"hitler":7045,"##ser":7046,"clouds":7047,"mathematical":7048,"quit":7049,"defended":7050,"oriented":7051,"##heim":7052,"fundamental":7053,"hardware":7054,"impressive":7055,"equally":7056,"convince":7057,"confederate":7058,"guilt":7059,"chuck":7060,"sliding":7061,"##ware":7062,"magnetic":7063,"narrowed":7064,"petersburg":7065,"bulgaria":7066,"otto":7067,"phd":7068,"skill":7069,"##ama":7070,"reader":7071,"hopes":7072,"pitcher":7073,"reservoir":7074,"hearts":7075,"automatically":7076,"expecting":7077,"mysterious":7078,"bennett":7079,"extensively":7080,"imagined":7081,"seeds":7082,"monitor":7083,"fix":7084,"##ative":7085,"journalism":7086,"struggling":7087,"signature":7088,"ranch":7089,"encounter":7090,"photographer":7091,"observation":7092,"protests":7093,"##pin":7094,"influences":7095,"##hr":7096,"calendar":7097,"##all":7098,"cruz":7099,"croatia":7100,"locomotive":7101,"hughes":7102,"naturally":7103,"shakespeare":7104,"basement":7105,"hook":7106,"uncredited":7107,"faded":7108,"theories":7109,"approaches":7110,"dare":7111,"phillips":7112,"filling":7113,"fury":7114,"obama":7115,"##ain":7116,"efficient":7117,"arc":7118,"deliver":7119,"min":7120,"raid":7121,"breeding":7122,"inducted":7123,"leagues":7124,"efficiency":7125,"axis":7126,"montana":7127,"eagles":7128,"##ked":7129,"supplied":7130,"instructions":7131,"karen":7132,"picking":7133,"indicating":7134,"trap":7135,"anchor":7136,"practically":7137,"christians":7138,"tomb":7139,"vary":7140,"occasional":7141,"electronics":7142,"lords":7143,"readers":7144,"newcastle":7145,"faint":7146,"innovation":7147,"collect":7148,"situations":7149,"engagement":7150,"160":7151,"claude":7152,"mixture":7153,"##feld":7154,"peer":7155,"tissue":7156,"logo":7157,"lean":7158,"##ration":7159,"°f":7160,"floors":7161,"##ven":7162,"architects":7163,"reducing":7164,"##our":7165,"##ments":7166,"rope":7167,"1859":7168,"ottawa":7169,"##har":7170,"samples":7171,"banking":7172,"declaration":7173,"proteins":7174,"resignation":7175,"francois":7176,"saudi":7177,"advocate":7178,"exhibited":7179,"armor":7180,"twins":7181,"divorce":7182,"##ras":7183,"abraham":7184,"reviewed":7185,"jo":7186,"temporarily":7187,"matrix":7188,"physically":7189,"pulse":7190,"curled":7191,"##ena":7192,"difficulties":7193,"bengal":7194,"usage":7195,"##ban":7196,"annie":7197,"riders":7198,"certificate":7199,"##pi":7200,"holes":7201,"warsaw":7202,"distinctive":7203,"jessica":7204,"##mon":7205,"mutual":7206,"1857":7207,"customs":7208,"circular":7209,"eugene":7210,"removal":7211,"loaded":7212,"mere":7213,"vulnerable":7214,"depicted":7215,"generations":7216,"dame":7217,"heir":7218,"enormous":7219,"lightly":7220,"climbing":7221,"pitched":7222,"lessons":7223,"pilots":7224,"nepal":7225,"ram":7226,"google":7227,"preparing":7228,"brad":7229,"louise":7230,"renowned":7231,"##₂":7232,"liam":7233,"##ably":7234,"plaza":7235,"shaw":7236,"sophie":7237,"brilliant":7238,"bills":7239,"##bar":7240,"##nik":7241,"fucking":7242,"mainland":7243,"server":7244,"pleasant":7245,"seized":7246,"veterans":7247,"jerked":7248,"fail":7249,"beta":7250,"brush":7251,"radiation":7252,"stored":7253,"warmth":7254,"southeastern":7255,"nate":7256,"sin":7257,"raced":7258,"berkeley":7259,"joke":7260,"athlete":7261,"designation":7262,"trunk":7263,"##low":7264,"roland":7265,"qualification":7266,"archives":7267,"heels":7268,"artwork":7269,"receives":7270,"judicial":7271,"reserves":7272,"##bed":7273,"woke":7274,"installation":7275,"abu":7276,"floating":7277,"fake":7278,"lesser":7279,"excitement":7280,"interface":7281,"concentrated":7282,"addressed":7283,"characteristic":7284,"amanda":7285,"saxophone":7286,"monk":7287,"auto":7288,"##bus":7289,"releasing":7290,"egg":7291,"dies":7292,"interaction":7293,"defender":7294,"ce":7295,"outbreak":7296,"glory":7297,"loving":7298,"##bert":7299,"sequel":7300,"consciousness":7301,"http":7302,"awake":7303,"ski":7304,"enrolled":7305,"##ress":7306,"handling":7307,"rookie":7308,"brow":7309,"somebody":7310,"biography":7311,"warfare":7312,"amounts":7313,"contracts":7314,"presentation":7315,"fabric":7316,"dissolved":7317,"challenged":7318,"meter":7319,"psychological":7320,"lt":7321,"elevated":7322,"rally":7323,"accurate":7324,"##tha":7325,"hospitals":7326,"undergraduate":7327,"specialist":7328,"venezuela":7329,"exhibit":7330,"shed":7331,"nursing":7332,"protestant":7333,"fluid":7334,"structural":7335,"footage":7336,"jared":7337,"consistent":7338,"prey":7339,"##ska":7340,"succession":7341,"reflect":7342,"exile":7343,"lebanon":7344,"wiped":7345,"suspect":7346,"shanghai":7347,"resting":7348,"integration":7349,"preservation":7350,"marvel":7351,"variant":7352,"pirates":7353,"sheep":7354,"rounded":7355,"capita":7356,"sailing":7357,"colonies":7358,"manuscript":7359,"deemed":7360,"variations":7361,"clarke":7362,"functional":7363,"emerging":7364,"boxing":7365,"relaxed":7366,"curse":7367,"azerbaijan":7368,"heavyweight":7369,"nickname":7370,"editorial":7371,"rang":7372,"grid":7373,"tightened":7374,"earthquake":7375,"flashed":7376,"miguel":7377,"rushing":7378,"##ches":7379,"improvements":7380,"boxes":7381,"brooks":7382,"180":7383,"consumption":7384,"molecular":7385,"felix":7386,"societies":7387,"repeatedly":7388,"variation":7389,"aids":7390,"civic":7391,"graphics":7392,"professionals":7393,"realm":7394,"autonomous":7395,"receiver":7396,"delayed":7397,"workshop":7398,"militia":7399,"chairs":7400,"trump":7401,"canyon":7402,"##point":7403,"harsh":7404,"extending":7405,"lovely":7406,"happiness":7407,"##jan":7408,"stake":7409,"eyebrows":7410,"embassy":7411,"wellington":7412,"hannah":7413,"##ella":7414,"sony":7415,"corners":7416,"bishops":7417,"swear":7418,"cloth":7419,"contents":7420,"xi":7421,"namely":7422,"commenced":7423,"1854":7424,"stanford":7425,"nashville":7426,"courage":7427,"graphic":7428,"commitment":7429,"garrison":7430,"##bin":7431,"hamlet":7432,"clearing":7433,"rebels":7434,"attraction":7435,"literacy":7436,"cooking":7437,"ruins":7438,"temples":7439,"jenny":7440,"humanity":7441,"celebrate":7442,"hasn":7443,"freight":7444,"sixty":7445,"rebel":7446,"bastard":7447,"##art":7448,"newton":7449,"##ada":7450,"deer":7451,"##ges":7452,"##ching":7453,"smiles":7454,"delaware":7455,"singers":7456,"##ets":7457,"approaching":7458,"assists":7459,"flame":7460,"##ph":7461,"boulevard":7462,"barrel":7463,"planted":7464,"##ome":7465,"pursuit":7466,"##sia":7467,"consequences":7468,"posts":7469,"shallow":7470,"invitation":7471,"rode":7472,"depot":7473,"ernest":7474,"kane":7475,"rod":7476,"concepts":7477,"preston":7478,"topic":7479,"chambers":7480,"striking":7481,"blast":7482,"arrives":7483,"descendants":7484,"montgomery":7485,"ranges":7486,"worlds":7487,"##lay":7488,"##ari":7489,"span":7490,"chaos":7491,"praise":7492,"##ag":7493,"fewer":7494,"1855":7495,"sanctuary":7496,"mud":7497,"fbi":7498,"##ions":7499,"programmes":7500,"maintaining":7501,"unity":7502,"harper":7503,"bore":7504,"handsome":7505,"closure":7506,"tournaments":7507,"thunder":7508,"nebraska":7509,"linda":7510,"facade":7511,"puts":7512,"satisfied":7513,"argentine":7514,"dale":7515,"cork":7516,"dome":7517,"panama":7518,"##yl":7519,"1858":7520,"tasks":7521,"experts":7522,"##ates":7523,"feeding":7524,"equation":7525,"##las":7526,"##ida":7527,"##tu":7528,"engage":7529,"bryan":7530,"##ax":7531,"um":7532,"quartet":7533,"melody":7534,"disbanded":7535,"sheffield":7536,"blocked":7537,"gasped":7538,"delay":7539,"kisses":7540,"maggie":7541,"connects":7542,"##non":7543,"sts":7544,"poured":7545,"creator":7546,"publishers":7547,"##we":7548,"guided":7549,"ellis":7550,"extinct":7551,"hug":7552,"gaining":7553,"##ord":7554,"complicated":7555,"##bility":7556,"poll":7557,"clenched":7558,"investigate":7559,"##use":7560,"thereby":7561,"quantum":7562,"spine":7563,"cdp":7564,"humor":7565,"kills":7566,"administered":7567,"semifinals":7568,"##du":7569,"encountered":7570,"ignore":7571,"##bu":7572,"commentary":7573,"##maker":7574,"bother":7575,"roosevelt":7576,"140":7577,"plains":7578,"halfway":7579,"flowing":7580,"cultures":7581,"crack":7582,"imprisoned":7583,"neighboring":7584,"airline":7585,"##ses":7586,"##view":7587,"##mate":7588,"##ec":7589,"gather":7590,"wolves":7591,"marathon":7592,"transformed":7593,"##ill":7594,"cruise":7595,"organisations":7596,"carol":7597,"punch":7598,"exhibitions":7599,"numbered":7600,"alarm":7601,"ratings":7602,"daddy":7603,"silently":7604,"##stein":7605,"queens":7606,"colours":7607,"impression":7608,"guidance":7609,"liu":7610,"tactical":7611,"##rat":7612,"marshal":7613,"della":7614,"arrow":7615,"##ings":7616,"rested":7617,"feared":7618,"tender":7619,"owns":7620,"bitter":7621,"advisor":7622,"escort":7623,"##ides":7624,"spare":7625,"farms":7626,"grants":7627,"##ene":7628,"dragons":7629,"encourage":7630,"colleagues":7631,"cameras":7632,"##und":7633,"sucked":7634,"pile":7635,"spirits":7636,"prague":7637,"statements":7638,"suspension":7639,"landmark":7640,"fence":7641,"torture":7642,"recreation":7643,"bags":7644,"permanently":7645,"survivors":7646,"pond":7647,"spy":7648,"predecessor":7649,"bombing":7650,"coup":7651,"##og":7652,"protecting":7653,"transformation":7654,"glow":7655,"##lands":7656,"##book":7657,"dug":7658,"priests":7659,"andrea":7660,"feat":7661,"barn":7662,"jumping":7663,"##chen":7664,"##ologist":7665,"##con":7666,"casualties":7667,"stern":7668,"auckland":7669,"pipe":7670,"serie":7671,"revealing":7672,"ba":7673,"##bel":7674,"trevor":7675,"mercy":7676,"spectrum":7677,"yang":7678,"consist":7679,"governing":7680,"collaborated":7681,"possessed":7682,"epic":7683,"comprises":7684,"blew":7685,"shane":7686,"##ack":7687,"lopez":7688,"honored":7689,"magical":7690,"sacrifice":7691,"judgment":7692,"perceived":7693,"hammer":7694,"mtv":7695,"baronet":7696,"tune":7697,"das":7698,"missionary":7699,"sheets":7700,"350":7701,"neutral":7702,"oral":7703,"threatening":7704,"attractive":7705,"shade":7706,"aims":7707,"seminary":7708,"##master":7709,"estates":7710,"1856":7711,"michel":7712,"wounds":7713,"refugees":7714,"manufacturers":7715,"##nic":7716,"mercury":7717,"syndrome":7718,"porter":7719,"##iya":7720,"##din":7721,"hamburg":7722,"identification":7723,"upstairs":7724,"purse":7725,"widened":7726,"pause":7727,"cared":7728,"breathed":7729,"affiliate":7730,"santiago":7731,"prevented":7732,"celtic":7733,"fisher":7734,"125":7735,"recruited":7736,"byzantine":7737,"reconstruction":7738,"farther":7739,"##mp":7740,"diet":7741,"sake":7742,"au":7743,"spite":7744,"sensation":7745,"##ert":7746,"blank":7747,"separation":7748,"105":7749,"##hon":7750,"vladimir":7751,"armies":7752,"anime":7753,"##lie":7754,"accommodate":7755,"orbit":7756,"cult":7757,"sofia":7758,"archive":7759,"##ify":7760,"##box":7761,"founders":7762,"sustained":7763,"disorder":7764,"honours":7765,"northeastern":7766,"mia":7767,"crops":7768,"violet":7769,"threats":7770,"blanket":7771,"fires":7772,"canton":7773,"followers":7774,"southwestern":7775,"prototype":7776,"voyage":7777,"assignment":7778,"altered":7779,"moderate":7780,"protocol":7781,"pistol":7782,"##eo":7783,"questioned":7784,"brass":7785,"lifting":7786,"1852":7787,"math":7788,"authored":7789,"##ual":7790,"doug":7791,"dimensional":7792,"dynamic":7793,"##san":7794,"1851":7795,"pronounced":7796,"grateful":7797,"quest":7798,"uncomfortable":7799,"boom":7800,"presidency":7801,"stevens":7802,"relating":7803,"politicians":7804,"chen":7805,"barrier":7806,"quinn":7807,"diana":7808,"mosque":7809,"tribal":7810,"cheese":7811,"palmer":7812,"portions":7813,"sometime":7814,"chester":7815,"treasure":7816,"wu":7817,"bend":7818,"download":7819,"millions":7820,"reforms":7821,"registration":7822,"##osa":7823,"consequently":7824,"monitoring":7825,"ate":7826,"preliminary":7827,"brandon":7828,"invented":7829,"ps":7830,"eaten":7831,"exterior":7832,"intervention":7833,"ports":7834,"documented":7835,"log":7836,"displays":7837,"lecture":7838,"sally":7839,"favourite":7840,"##itz":7841,"vermont":7842,"lo":7843,"invisible":7844,"isle":7845,"breed":7846,"##ator":7847,"journalists":7848,"relay":7849,"speaks":7850,"backward":7851,"explore":7852,"midfielder":7853,"actively":7854,"stefan":7855,"procedures":7856,"cannon":7857,"blond":7858,"kenneth":7859,"centered":7860,"servants":7861,"chains":7862,"libraries":7863,"malcolm":7864,"essex":7865,"henri":7866,"slavery":7867,"##hal":7868,"facts":7869,"fairy":7870,"coached":7871,"cassie":7872,"cats":7873,"washed":7874,"cop":7875,"##fi":7876,"announcement":7877,"item":7878,"2000s":7879,"vinyl":7880,"activated":7881,"marco":7882,"frontier":7883,"growled":7884,"curriculum":7885,"##das":7886,"loyal":7887,"accomplished":7888,"leslie":7889,"ritual":7890,"kenny":7891,"##00":7892,"vii":7893,"napoleon":7894,"hollow":7895,"hybrid":7896,"jungle":7897,"stationed":7898,"friedrich":7899,"counted":7900,"##ulated":7901,"platinum":7902,"theatrical":7903,"seated":7904,"col":7905,"rubber":7906,"glen":7907,"1840":7908,"diversity":7909,"healing":7910,"extends":7911,"id":7912,"provisions":7913,"administrator":7914,"columbus":7915,"##oe":7916,"tributary":7917,"te":7918,"assured":7919,"org":7920,"##uous":7921,"prestigious":7922,"examined":7923,"lectures":7924,"grammy":7925,"ronald":7926,"associations":7927,"bailey":7928,"allan":7929,"essays":7930,"flute":7931,"believing":7932,"consultant":7933,"proceedings":7934,"travelling":7935,"1853":7936,"kit":7937,"kerala":7938,"yugoslavia":7939,"buddy":7940,"methodist":7941,"##ith":7942,"burial":7943,"centres":7944,"batman":7945,"##nda":7946,"discontinued":7947,"bo":7948,"dock":7949,"stockholm":7950,"lungs":7951,"severely":7952,"##nk":7953,"citing":7954,"manga":7955,"##ugh":7956,"steal":7957,"mumbai":7958,"iraqi":7959,"robot":7960,"celebrity":7961,"bride":7962,"broadcasts":7963,"abolished":7964,"pot":7965,"joel":7966,"overhead":7967,"franz":7968,"packed":7969,"reconnaissance":7970,"johann":7971,"acknowledged":7972,"introduce":7973,"handled":7974,"doctorate":7975,"developments":7976,"drinks":7977,"alley":7978,"palestine":7979,"##nis":7980,"##aki":7981,"proceeded":7982,"recover":7983,"bradley":7984,"grain":7985,"patch":7986,"afford":7987,"infection":7988,"nationalist":7989,"legendary":7990,"##ath":7991,"interchange":7992,"virtually":7993,"gen":7994,"gravity":7995,"exploration":7996,"amber":7997,"vital":7998,"wishes":7999,"powell":8000,"doctrine":8001,"elbow":8002,"screenplay":8003,"##bird":8004,"contribute":8005,"indonesian":8006,"pet":8007,"creates":8008,"##com":8009,"enzyme":8010,"kylie":8011,"discipline":8012,"drops":8013,"manila":8014,"hunger":8015,"##ien":8016,"layers":8017,"suffer":8018,"fever":8019,"bits":8020,"monica":8021,"keyboard":8022,"manages":8023,"##hood":8024,"searched":8025,"appeals":8026,"##bad":8027,"testament":8028,"grande":8029,"reid":8030,"##war":8031,"beliefs":8032,"congo":8033,"##ification":8034,"##dia":8035,"si":8036,"requiring":8037,"##via":8038,"casey":8039,"1849":8040,"regret":8041,"streak":8042,"rape":8043,"depends":8044,"syrian":8045,"sprint":8046,"pound":8047,"tourists":8048,"upcoming":8049,"pub":8050,"##xi":8051,"tense":8052,"##els":8053,"practiced":8054,"echo":8055,"nationwide":8056,"guild":8057,"motorcycle":8058,"liz":8059,"##zar":8060,"chiefs":8061,"desired":8062,"elena":8063,"bye":8064,"precious":8065,"absorbed":8066,"relatives":8067,"booth":8068,"pianist":8069,"##mal":8070,"citizenship":8071,"exhausted":8072,"wilhelm":8073,"##ceae":8074,"##hed":8075,"noting":8076,"quarterback":8077,"urge":8078,"hectares":8079,"##gue":8080,"ace":8081,"holly":8082,"##tal":8083,"blonde":8084,"davies":8085,"parked":8086,"sustainable":8087,"stepping":8088,"twentieth":8089,"airfield":8090,"galaxy":8091,"nest":8092,"chip":8093,"##nell":8094,"tan":8095,"shaft":8096,"paulo":8097,"requirement":8098,"##zy":8099,"paradise":8100,"tobacco":8101,"trans":8102,"renewed":8103,"vietnamese":8104,"##cker":8105,"##ju":8106,"suggesting":8107,"catching":8108,"holmes":8109,"enjoying":8110,"md":8111,"trips":8112,"colt":8113,"holder":8114,"butterfly":8115,"nerve":8116,"reformed":8117,"cherry":8118,"bowling":8119,"trailer":8120,"carriage":8121,"goodbye":8122,"appreciate":8123,"toy":8124,"joshua":8125,"interactive":8126,"enabled":8127,"involve":8128,"##kan":8129,"collar":8130,"determination":8131,"bunch":8132,"facebook":8133,"recall":8134,"shorts":8135,"superintendent":8136,"episcopal":8137,"frustration":8138,"giovanni":8139,"nineteenth":8140,"laser":8141,"privately":8142,"array":8143,"circulation":8144,"##ovic":8145,"armstrong":8146,"deals":8147,"painful":8148,"permit":8149,"discrimination":8150,"##wi":8151,"aires":8152,"retiring":8153,"cottage":8154,"ni":8155,"##sta":8156,"horizon":8157,"ellen":8158,"jamaica":8159,"ripped":8160,"fernando":8161,"chapters":8162,"playstation":8163,"patron":8164,"lecturer":8165,"navigation":8166,"behaviour":8167,"genes":8168,"georgian":8169,"export":8170,"solomon":8171,"rivals":8172,"swift":8173,"seventeen":8174,"rodriguez":8175,"princeton":8176,"independently":8177,"sox":8178,"1847":8179,"arguing":8180,"entity":8181,"casting":8182,"hank":8183,"criteria":8184,"oakland":8185,"geographic":8186,"milwaukee":8187,"reflection":8188,"expanding":8189,"conquest":8190,"dubbed":8191,"##tv":8192,"halt":8193,"brave":8194,"brunswick":8195,"doi":8196,"arched":8197,"curtis":8198,"divorced":8199,"predominantly":8200,"somerset":8201,"streams":8202,"ugly":8203,"zoo":8204,"horrible":8205,"curved":8206,"buenos":8207,"fierce":8208,"dictionary":8209,"vector":8210,"theological":8211,"unions":8212,"handful":8213,"stability":8214,"chan":8215,"punjab":8216,"segments":8217,"##lly":8218,"altar":8219,"ignoring":8220,"gesture":8221,"monsters":8222,"pastor":8223,"##stone":8224,"thighs":8225,"unexpected":8226,"operators":8227,"abruptly":8228,"coin":8229,"compiled":8230,"associates":8231,"improving":8232,"migration":8233,"pin":8234,"##ose":8235,"compact":8236,"collegiate":8237,"reserved":8238,"##urs":8239,"quarterfinals":8240,"roster":8241,"restore":8242,"assembled":8243,"hurry":8244,"oval":8245,"##cies":8246,"1846":8247,"flags":8248,"martha":8249,"##del":8250,"victories":8251,"sharply":8252,"##rated":8253,"argues":8254,"deadly":8255,"neo":8256,"drawings":8257,"symbols":8258,"performer":8259,"##iel":8260,"griffin":8261,"restrictions":8262,"editing":8263,"andrews":8264,"java":8265,"journals":8266,"arabia":8267,"compositions":8268,"dee":8269,"pierce":8270,"removing":8271,"hindi":8272,"casino":8273,"runway":8274,"civilians":8275,"minds":8276,"nasa":8277,"hotels":8278,"##zation":8279,"refuge":8280,"rent":8281,"retain":8282,"potentially":8283,"conferences":8284,"suburban":8285,"conducting":8286,"##tto":8287,"##tions":8288,"##tle":8289,"descended":8290,"massacre":8291,"##cal":8292,"ammunition":8293,"terrain":8294,"fork":8295,"souls":8296,"counts":8297,"chelsea":8298,"durham":8299,"drives":8300,"cab":8301,"##bank":8302,"perth":8303,"realizing":8304,"palestinian":8305,"finn":8306,"simpson":8307,"##dal":8308,"betty":8309,"##ule":8310,"moreover":8311,"particles":8312,"cardinals":8313,"tent":8314,"evaluation":8315,"extraordinary":8316,"##oid":8317,"inscription":8318,"##works":8319,"wednesday":8320,"chloe":8321,"maintains":8322,"panels":8323,"ashley":8324,"trucks":8325,"##nation":8326,"cluster":8327,"sunlight":8328,"strikes":8329,"zhang":8330,"##wing":8331,"dialect":8332,"canon":8333,"##ap":8334,"tucked":8335,"##ws":8336,"collecting":8337,"##mas":8338,"##can":8339,"##sville":8340,"maker":8341,"quoted":8342,"evan":8343,"franco":8344,"aria":8345,"buying":8346,"cleaning":8347,"eva":8348,"closet":8349,"provision":8350,"apollo":8351,"clinic":8352,"rat":8353,"##ez":8354,"necessarily":8355,"ac":8356,"##gle":8357,"##ising":8358,"venues":8359,"flipped":8360,"cent":8361,"spreading":8362,"trustees":8363,"checking":8364,"authorized":8365,"##sco":8366,"disappointed":8367,"##ado":8368,"notion":8369,"duration":8370,"trumpet":8371,"hesitated":8372,"topped":8373,"brussels":8374,"rolls":8375,"theoretical":8376,"hint":8377,"define":8378,"aggressive":8379,"repeat":8380,"wash":8381,"peaceful":8382,"optical":8383,"width":8384,"allegedly":8385,"mcdonald":8386,"strict":8387,"copyright":8388,"##illa":8389,"investors":8390,"mar":8391,"jam":8392,"witnesses":8393,"sounding":8394,"miranda":8395,"michelle":8396,"privacy":8397,"hugo":8398,"harmony":8399,"##pp":8400,"valid":8401,"lynn":8402,"glared":8403,"nina":8404,"102":8405,"headquartered":8406,"diving":8407,"boarding":8408,"gibson":8409,"##ncy":8410,"albanian":8411,"marsh":8412,"routine":8413,"dealt":8414,"enhanced":8415,"er":8416,"intelligent":8417,"substance":8418,"targeted":8419,"enlisted":8420,"discovers":8421,"spinning":8422,"observations":8423,"pissed":8424,"smoking":8425,"rebecca":8426,"capitol":8427,"visa":8428,"varied":8429,"costume":8430,"seemingly":8431,"indies":8432,"compensation":8433,"surgeon":8434,"thursday":8435,"arsenal":8436,"westminster":8437,"suburbs":8438,"rid":8439,"anglican":8440,"##ridge":8441,"knots":8442,"foods":8443,"alumni":8444,"lighter":8445,"fraser":8446,"whoever":8447,"portal":8448,"scandal":8449,"##ray":8450,"gavin":8451,"advised":8452,"instructor":8453,"flooding":8454,"terrorist":8455,"##ale":8456,"teenage":8457,"interim":8458,"senses":8459,"duck":8460,"teen":8461,"thesis":8462,"abby":8463,"eager":8464,"overcome":8465,"##ile":8466,"newport":8467,"glenn":8468,"rises":8469,"shame":8470,"##cc":8471,"prompted":8472,"priority":8473,"forgot":8474,"bomber":8475,"nicolas":8476,"protective":8477,"360":8478,"cartoon":8479,"katherine":8480,"breeze":8481,"lonely":8482,"trusted":8483,"henderson":8484,"richardson":8485,"relax":8486,"banner":8487,"candy":8488,"palms":8489,"remarkable":8490,"##rio":8491,"legends":8492,"cricketer":8493,"essay":8494,"ordained":8495,"edmund":8496,"rifles":8497,"trigger":8498,"##uri":8499,"##away":8500,"sail":8501,"alert":8502,"1830":8503,"audiences":8504,"penn":8505,"sussex":8506,"siblings":8507,"pursued":8508,"indianapolis":8509,"resist":8510,"rosa":8511,"consequence":8512,"succeed":8513,"avoided":8514,"1845":8515,"##ulation":8516,"inland":8517,"##tie":8518,"##nna":8519,"counsel":8520,"profession":8521,"chronicle":8522,"hurried":8523,"##una":8524,"eyebrow":8525,"eventual":8526,"bleeding":8527,"innovative":8528,"cure":8529,"##dom":8530,"committees":8531,"accounting":8532,"con":8533,"scope":8534,"hardy":8535,"heather":8536,"tenor":8537,"gut":8538,"herald":8539,"codes":8540,"tore":8541,"scales":8542,"wagon":8543,"##oo":8544,"luxury":8545,"tin":8546,"prefer":8547,"fountain":8548,"triangle":8549,"bonds":8550,"darling":8551,"convoy":8552,"dried":8553,"traced":8554,"beings":8555,"troy":8556,"accidentally":8557,"slam":8558,"findings":8559,"smelled":8560,"joey":8561,"lawyers":8562,"outcome":8563,"steep":8564,"bosnia":8565,"configuration":8566,"shifting":8567,"toll":8568,"brook":8569,"performers":8570,"lobby":8571,"philosophical":8572,"construct":8573,"shrine":8574,"aggregate":8575,"boot":8576,"cox":8577,"phenomenon":8578,"savage":8579,"insane":8580,"solely":8581,"reynolds":8582,"lifestyle":8583,"##ima":8584,"nationally":8585,"holdings":8586,"consideration":8587,"enable":8588,"edgar":8589,"mo":8590,"mama":8591,"##tein":8592,"fights":8593,"relegation":8594,"chances":8595,"atomic":8596,"hub":8597,"conjunction":8598,"awkward":8599,"reactions":8600,"currency":8601,"finale":8602,"kumar":8603,"underwent":8604,"steering":8605,"elaborate":8606,"gifts":8607,"comprising":8608,"melissa":8609,"veins":8610,"reasonable":8611,"sunshine":8612,"chi":8613,"solve":8614,"trails":8615,"inhabited":8616,"elimination":8617,"ethics":8618,"huh":8619,"ana":8620,"molly":8621,"consent":8622,"apartments":8623,"layout":8624,"marines":8625,"##ces":8626,"hunters":8627,"bulk":8628,"##oma":8629,"hometown":8630,"##wall":8631,"##mont":8632,"cracked":8633,"reads":8634,"neighbouring":8635,"withdrawn":8636,"admission":8637,"wingspan":8638,"damned":8639,"anthology":8640,"lancashire":8641,"brands":8642,"batting":8643,"forgive":8644,"cuban":8645,"awful":8646,"##lyn":8647,"104":8648,"dimensions":8649,"imagination":8650,"##ade":8651,"dante":8652,"##ship":8653,"tracking":8654,"desperately":8655,"goalkeeper":8656,"##yne":8657,"groaned":8658,"workshops":8659,"confident":8660,"burton":8661,"gerald":8662,"milton":8663,"circus":8664,"uncertain":8665,"slope":8666,"copenhagen":8667,"sophia":8668,"fog":8669,"philosopher":8670,"portraits":8671,"accent":8672,"cycling":8673,"varying":8674,"gripped":8675,"larvae":8676,"garrett":8677,"specified":8678,"scotia":8679,"mature":8680,"luther":8681,"kurt":8682,"rap":8683,"##kes":8684,"aerial":8685,"750":8686,"ferdinand":8687,"heated":8688,"es":8689,"transported":8690,"##shan":8691,"safely":8692,"nonetheless":8693,"##orn":8694,"##gal":8695,"motors":8696,"demanding":8697,"##sburg":8698,"startled":8699,"##brook":8700,"ally":8701,"generate":8702,"caps":8703,"ghana":8704,"stained":8705,"demo":8706,"mentions":8707,"beds":8708,"ap":8709,"afterward":8710,"diary":8711,"##bling":8712,"utility":8713,"##iro":8714,"richards":8715,"1837":8716,"conspiracy":8717,"conscious":8718,"shining":8719,"footsteps":8720,"observer":8721,"cyprus":8722,"urged":8723,"loyalty":8724,"developer":8725,"probability":8726,"olive":8727,"upgraded":8728,"gym":8729,"miracle":8730,"insects":8731,"graves":8732,"1844":8733,"ourselves":8734,"hydrogen":8735,"amazon":8736,"katie":8737,"tickets":8738,"poets":8739,"##pm":8740,"planes":8741,"##pan":8742,"prevention":8743,"witnessed":8744,"dense":8745,"jin":8746,"randy":8747,"tang":8748,"warehouse":8749,"monroe":8750,"bang":8751,"archived":8752,"elderly":8753,"investigations":8754,"alec":8755,"granite":8756,"mineral":8757,"conflicts":8758,"controlling":8759,"aboriginal":8760,"carlo":8761,"##zu":8762,"mechanics":8763,"stan":8764,"stark":8765,"rhode":8766,"skirt":8767,"est":8768,"##berry":8769,"bombs":8770,"respected":8771,"##horn":8772,"imposed":8773,"limestone":8774,"deny":8775,"nominee":8776,"memphis":8777,"grabbing":8778,"disabled":8779,"##als":8780,"amusement":8781,"aa":8782,"frankfurt":8783,"corn":8784,"referendum":8785,"varies":8786,"slowed":8787,"disk":8788,"firms":8789,"unconscious":8790,"incredible":8791,"clue":8792,"sue":8793,"##zhou":8794,"twist":8795,"##cio":8796,"joins":8797,"idaho":8798,"chad":8799,"developers":8800,"computing":8801,"destroyer":8802,"103":8803,"mortal":8804,"tucker":8805,"kingston":8806,"choices":8807,"yu":8808,"carson":8809,"1800":8810,"os":8811,"whitney":8812,"geneva":8813,"pretend":8814,"dimension":8815,"staged":8816,"plateau":8817,"maya":8818,"##une":8819,"freestyle":8820,"##bc":8821,"rovers":8822,"hiv":8823,"##ids":8824,"tristan":8825,"classroom":8826,"prospect":8827,"##hus":8828,"honestly":8829,"diploma":8830,"lied":8831,"thermal":8832,"auxiliary":8833,"feast":8834,"unlikely":8835,"iata":8836,"##tel":8837,"morocco":8838,"pounding":8839,"treasury":8840,"lithuania":8841,"considerably":8842,"1841":8843,"dish":8844,"1812":8845,"geological":8846,"matching":8847,"stumbled":8848,"destroying":8849,"marched":8850,"brien":8851,"advances":8852,"cake":8853,"nicole":8854,"belle":8855,"settling":8856,"measuring":8857,"directing":8858,"##mie":8859,"tuesday":8860,"bassist":8861,"capabilities":8862,"stunned":8863,"fraud":8864,"torpedo":8865,"##list":8866,"##phone":8867,"anton":8868,"wisdom":8869,"surveillance":8870,"ruined":8871,"##ulate":8872,"lawsuit":8873,"healthcare":8874,"theorem":8875,"halls":8876,"trend":8877,"aka":8878,"horizontal":8879,"dozens":8880,"acquire":8881,"lasting":8882,"swim":8883,"hawk":8884,"gorgeous":8885,"fees":8886,"vicinity":8887,"decrease":8888,"adoption":8889,"tactics":8890,"##ography":8891,"pakistani":8892,"##ole":8893,"draws":8894,"##hall":8895,"willie":8896,"burke":8897,"heath":8898,"algorithm":8899,"integral":8900,"powder":8901,"elliott":8902,"brigadier":8903,"jackie":8904,"tate":8905,"varieties":8906,"darker":8907,"##cho":8908,"lately":8909,"cigarette":8910,"specimens":8911,"adds":8912,"##ree":8913,"##ensis":8914,"##inger":8915,"exploded":8916,"finalist":8917,"cia":8918,"murders":8919,"wilderness":8920,"arguments":8921,"nicknamed":8922,"acceptance":8923,"onwards":8924,"manufacture":8925,"robertson":8926,"jets":8927,"tampa":8928,"enterprises":8929,"blog":8930,"loudly":8931,"composers":8932,"nominations":8933,"1838":8934,"ai":8935,"malta":8936,"inquiry":8937,"automobile":8938,"hosting":8939,"viii":8940,"rays":8941,"tilted":8942,"grief":8943,"museums":8944,"strategies":8945,"furious":8946,"euro":8947,"equality":8948,"cohen":8949,"poison":8950,"surrey":8951,"wireless":8952,"governed":8953,"ridiculous":8954,"moses":8955,"##esh":8956,"##room":8957,"vanished":8958,"##ito":8959,"barnes":8960,"attract":8961,"morrison":8962,"istanbul":8963,"##iness":8964,"absent":8965,"rotation":8966,"petition":8967,"janet":8968,"##logical":8969,"satisfaction":8970,"custody":8971,"deliberately":8972,"observatory":8973,"comedian":8974,"surfaces":8975,"pinyin":8976,"novelist":8977,"strictly":8978,"canterbury":8979,"oslo":8980,"monks":8981,"embrace":8982,"ibm":8983,"jealous":8984,"photograph":8985,"continent":8986,"dorothy":8987,"marina":8988,"doc":8989,"excess":8990,"holden":8991,"allegations":8992,"explaining":8993,"stack":8994,"avoiding":8995,"lance":8996,"storyline":8997,"majesty":8998,"poorly":8999,"spike":9000,"dos":9001,"bradford":9002,"raven":9003,"travis":9004,"classics":9005,"proven":9006,"voltage":9007,"pillow":9008,"fists":9009,"butt":9010,"1842":9011,"interpreted":9012,"##car":9013,"1839":9014,"gage":9015,"telegraph":9016,"lens":9017,"promising":9018,"expelled":9019,"casual":9020,"collector":9021,"zones":9022,"##min":9023,"silly":9024,"nintendo":9025,"##kh":9026,"##bra":9027,"downstairs":9028,"chef":9029,"suspicious":9030,"afl":9031,"flies":9032,"vacant":9033,"uganda":9034,"pregnancy":9035,"condemned":9036,"lutheran":9037,"estimates":9038,"cheap":9039,"decree":9040,"saxon":9041,"proximity":9042,"stripped":9043,"idiot":9044,"deposits":9045,"contrary":9046,"presenter":9047,"magnus":9048,"glacier":9049,"im":9050,"offense":9051,"edwin":9052,"##ori":9053,"upright":9054,"##long":9055,"bolt":9056,"##ois":9057,"toss":9058,"geographical":9059,"##izes":9060,"environments":9061,"delicate":9062,"marking":9063,"abstract":9064,"xavier":9065,"nails":9066,"windsor":9067,"plantation":9068,"occurring":9069,"equity":9070,"saskatchewan":9071,"fears":9072,"drifted":9073,"sequences":9074,"vegetation":9075,"revolt":9076,"##stic":9077,"1843":9078,"sooner":9079,"fusion":9080,"opposing":9081,"nato":9082,"skating":9083,"1836":9084,"secretly":9085,"ruin":9086,"lease":9087,"##oc":9088,"edit":9089,"##nne":9090,"flora":9091,"anxiety":9092,"ruby":9093,"##ological":9094,"##mia":9095,"tel":9096,"bout":9097,"taxi":9098,"emmy":9099,"frost":9100,"rainbow":9101,"compounds":9102,"foundations":9103,"rainfall":9104,"assassination":9105,"nightmare":9106,"dominican":9107,"##win":9108,"achievements":9109,"deserve":9110,"orlando":9111,"intact":9112,"armenia":9113,"##nte":9114,"calgary":9115,"valentine":9116,"106":9117,"marion":9118,"proclaimed":9119,"theodore":9120,"bells":9121,"courtyard":9122,"thigh":9123,"gonzalez":9124,"console":9125,"troop":9126,"minimal":9127,"monte":9128,"everyday":9129,"##ence":9130,"##if":9131,"supporter":9132,"terrorism":9133,"buck":9134,"openly":9135,"presbyterian":9136,"activists":9137,"carpet":9138,"##iers":9139,"rubbing":9140,"uprising":9141,"##yi":9142,"cute":9143,"conceived":9144,"legally":9145,"##cht":9146,"millennium":9147,"cello":9148,"velocity":9149,"ji":9150,"rescued":9151,"cardiff":9152,"1835":9153,"rex":9154,"concentrate":9155,"senators":9156,"beard":9157,"rendered":9158,"glowing":9159,"battalions":9160,"scouts":9161,"competitors":9162,"sculptor":9163,"catalogue":9164,"arctic":9165,"ion":9166,"raja":9167,"bicycle":9168,"wow":9169,"glancing":9170,"lawn":9171,"##woman":9172,"gentleman":9173,"lighthouse":9174,"publish":9175,"predicted":9176,"calculated":9177,"##val":9178,"variants":9179,"##gne":9180,"strain":9181,"##ui":9182,"winston":9183,"deceased":9184,"##nus":9185,"touchdowns":9186,"brady":9187,"caleb":9188,"sinking":9189,"echoed":9190,"crush":9191,"hon":9192,"blessed":9193,"protagonist":9194,"hayes":9195,"endangered":9196,"magnitude":9197,"editors":9198,"##tine":9199,"estimate":9200,"responsibilities":9201,"##mel":9202,"backup":9203,"laying":9204,"consumed":9205,"sealed":9206,"zurich":9207,"lovers":9208,"frustrated":9209,"##eau":9210,"ahmed":9211,"kicking":9212,"mit":9213,"treasurer":9214,"1832":9215,"biblical":9216,"refuse":9217,"terrified":9218,"pump":9219,"agrees":9220,"genuine":9221,"imprisonment":9222,"refuses":9223,"plymouth":9224,"##hen":9225,"lou":9226,"##nen":9227,"tara":9228,"trembling":9229,"antarctic":9230,"ton":9231,"learns":9232,"##tas":9233,"crap":9234,"crucial":9235,"faction":9236,"atop":9237,"##borough":9238,"wrap":9239,"lancaster":9240,"odds":9241,"hopkins":9242,"erik":9243,"lyon":9244,"##eon":9245,"bros":9246,"##ode":9247,"snap":9248,"locality":9249,"tips":9250,"empress":9251,"crowned":9252,"cal":9253,"acclaimed":9254,"chuckled":9255,"##ory":9256,"clara":9257,"sends":9258,"mild":9259,"towel":9260,"##fl":9261,"##day":9262,"##а":9263,"wishing":9264,"assuming":9265,"interviewed":9266,"##bal":9267,"##die":9268,"interactions":9269,"eden":9270,"cups":9271,"helena":9272,"##lf":9273,"indie":9274,"beck":9275,"##fire":9276,"batteries":9277,"filipino":9278,"wizard":9279,"parted":9280,"##lam":9281,"traces":9282,"##born":9283,"rows":9284,"idol":9285,"albany":9286,"delegates":9287,"##ees":9288,"##sar":9289,"discussions":9290,"##ex":9291,"notre":9292,"instructed":9293,"belgrade":9294,"highways":9295,"suggestion":9296,"lauren":9297,"possess":9298,"orientation":9299,"alexandria":9300,"abdul":9301,"beats":9302,"salary":9303,"reunion":9304,"ludwig":9305,"alright":9306,"wagner":9307,"intimate":9308,"pockets":9309,"slovenia":9310,"hugged":9311,"brighton":9312,"merchants":9313,"cruel":9314,"stole":9315,"trek":9316,"slopes":9317,"repairs":9318,"enrollment":9319,"politically":9320,"underlying":9321,"promotional":9322,"counting":9323,"boeing":9324,"##bb":9325,"isabella":9326,"naming":9327,"##и":9328,"keen":9329,"bacteria":9330,"listing":9331,"separately":9332,"belfast":9333,"ussr":9334,"450":9335,"lithuanian":9336,"anybody":9337,"ribs":9338,"sphere":9339,"martinez":9340,"cock":9341,"embarrassed":9342,"proposals":9343,"fragments":9344,"nationals":9345,"##fs":9346,"##wski":9347,"premises":9348,"fin":9349,"1500":9350,"alpine":9351,"matched":9352,"freely":9353,"bounded":9354,"jace":9355,"sleeve":9356,"##af":9357,"gaming":9358,"pier":9359,"populated":9360,"evident":9361,"##like":9362,"frances":9363,"flooded":9364,"##dle":9365,"frightened":9366,"pour":9367,"trainer":9368,"framed":9369,"visitor":9370,"challenging":9371,"pig":9372,"wickets":9373,"##fold":9374,"infected":9375,"email":9376,"##pes":9377,"arose":9378,"##aw":9379,"reward":9380,"ecuador":9381,"oblast":9382,"vale":9383,"ch":9384,"shuttle":9385,"##usa":9386,"bach":9387,"rankings":9388,"forbidden":9389,"cornwall":9390,"accordance":9391,"salem":9392,"consumers":9393,"bruno":9394,"fantastic":9395,"toes":9396,"machinery":9397,"resolved":9398,"julius":9399,"remembering":9400,"propaganda":9401,"iceland":9402,"bombardment":9403,"tide":9404,"contacts":9405,"wives":9406,"##rah":9407,"concerto":9408,"macdonald":9409,"albania":9410,"implement":9411,"daisy":9412,"tapped":9413,"sudan":9414,"helmet":9415,"angela":9416,"mistress":9417,"##lic":9418,"crop":9419,"sunk":9420,"finest":9421,"##craft":9422,"hostile":9423,"##ute":9424,"##tsu":9425,"boxer":9426,"fr":9427,"paths":9428,"adjusted":9429,"habit":9430,"ballot":9431,"supervision":9432,"soprano":9433,"##zen":9434,"bullets":9435,"wicked":9436,"sunset":9437,"regiments":9438,"disappear":9439,"lamp":9440,"performs":9441,"app":9442,"##gia":9443,"##oa":9444,"rabbit":9445,"digging":9446,"incidents":9447,"entries":9448,"##cion":9449,"dishes":9450,"##oi":9451,"introducing":9452,"##ati":9453,"##fied":9454,"freshman":9455,"slot":9456,"jill":9457,"tackles":9458,"baroque":9459,"backs":9460,"##iest":9461,"lone":9462,"sponsor":9463,"destiny":9464,"altogether":9465,"convert":9466,"##aro":9467,"consensus":9468,"shapes":9469,"demonstration":9470,"basically":9471,"feminist":9472,"auction":9473,"artifacts":9474,"##bing":9475,"strongest":9476,"twitter":9477,"halifax":9478,"2019":9479,"allmusic":9480,"mighty":9481,"smallest":9482,"precise":9483,"alexandra":9484,"viola":9485,"##los":9486,"##ille":9487,"manuscripts":9488,"##illo":9489,"dancers":9490,"ari":9491,"managers":9492,"monuments":9493,"blades":9494,"barracks":9495,"springfield":9496,"maiden":9497,"consolidated":9498,"electron":9499,"##end":9500,"berry":9501,"airing":9502,"wheat":9503,"nobel":9504,"inclusion":9505,"blair":9506,"payments":9507,"geography":9508,"bee":9509,"cc":9510,"eleanor":9511,"react":9512,"##hurst":9513,"afc":9514,"manitoba":9515,"##yu":9516,"su":9517,"lineup":9518,"fitness":9519,"recreational":9520,"investments":9521,"airborne":9522,"disappointment":9523,"##dis":9524,"edmonton":9525,"viewing":9526,"##row":9527,"renovation":9528,"##cast":9529,"infant":9530,"bankruptcy":9531,"roses":9532,"aftermath":9533,"pavilion":9534,"##yer":9535,"carpenter":9536,"withdrawal":9537,"ladder":9538,"##hy":9539,"discussing":9540,"popped":9541,"reliable":9542,"agreements":9543,"rochester":9544,"##abad":9545,"curves":9546,"bombers":9547,"220":9548,"rao":9549,"reverend":9550,"decreased":9551,"choosing":9552,"107":9553,"stiff":9554,"consulting":9555,"naples":9556,"crawford":9557,"tracy":9558,"ka":9559,"ribbon":9560,"cops":9561,"##lee":9562,"crushed":9563,"deciding":9564,"unified":9565,"teenager":9566,"accepting":9567,"flagship":9568,"explorer":9569,"poles":9570,"sanchez":9571,"inspection":9572,"revived":9573,"skilled":9574,"induced":9575,"exchanged":9576,"flee":9577,"locals":9578,"tragedy":9579,"swallow":9580,"loading":9581,"hanna":9582,"demonstrate":9583,"##ela":9584,"salvador":9585,"flown":9586,"contestants":9587,"civilization":9588,"##ines":9589,"wanna":9590,"rhodes":9591,"fletcher":9592,"hector":9593,"knocking":9594,"considers":9595,"##ough":9596,"nash":9597,"mechanisms":9598,"sensed":9599,"mentally":9600,"walt":9601,"unclear":9602,"##eus":9603,"renovated":9604,"madame":9605,"##cks":9606,"crews":9607,"governmental":9608,"##hin":9609,"undertaken":9610,"monkey":9611,"##ben":9612,"##ato":9613,"fatal":9614,"armored":9615,"copa":9616,"caves":9617,"governance":9618,"grasp":9619,"perception":9620,"certification":9621,"froze":9622,"damp":9623,"tugged":9624,"wyoming":9625,"##rg":9626,"##ero":9627,"newman":9628,"##lor":9629,"nerves":9630,"curiosity":9631,"graph":9632,"115":9633,"##ami":9634,"withdraw":9635,"tunnels":9636,"dull":9637,"meredith":9638,"moss":9639,"exhibits":9640,"neighbors":9641,"communicate":9642,"accuracy":9643,"explored":9644,"raiders":9645,"republicans":9646,"secular":9647,"kat":9648,"superman":9649,"penny":9650,"criticised":9651,"##tch":9652,"freed":9653,"update":9654,"conviction":9655,"wade":9656,"ham":9657,"likewise":9658,"delegation":9659,"gotta":9660,"doll":9661,"promises":9662,"technological":9663,"myth":9664,"nationality":9665,"resolve":9666,"convent":9667,"##mark":9668,"sharon":9669,"dig":9670,"sip":9671,"coordinator":9672,"entrepreneur":9673,"fold":9674,"##dine":9675,"capability":9676,"councillor":9677,"synonym":9678,"blown":9679,"swan":9680,"cursed":9681,"1815":9682,"jonas":9683,"haired":9684,"sofa":9685,"canvas":9686,"keeper":9687,"rivalry":9688,"##hart":9689,"rapper":9690,"speedway":9691,"swords":9692,"postal":9693,"maxwell":9694,"estonia":9695,"potter":9696,"recurring":9697,"##nn":9698,"##ave":9699,"errors":9700,"##oni":9701,"cognitive":9702,"1834":9703,"##²":9704,"claws":9705,"nadu":9706,"roberto":9707,"bce":9708,"wrestler":9709,"ellie":9710,"##ations":9711,"infinite":9712,"ink":9713,"##tia":9714,"presumably":9715,"finite":9716,"staircase":9717,"108":9718,"noel":9719,"patricia":9720,"nacional":9721,"##cation":9722,"chill":9723,"eternal":9724,"tu":9725,"preventing":9726,"prussia":9727,"fossil":9728,"limbs":9729,"##logist":9730,"ernst":9731,"frog":9732,"perez":9733,"rene":9734,"##ace":9735,"pizza":9736,"prussian":9737,"##ios":9738,"##vy":9739,"molecules":9740,"regulatory":9741,"answering":9742,"opinions":9743,"sworn":9744,"lengths":9745,"supposedly":9746,"hypothesis":9747,"upward":9748,"habitats":9749,"seating":9750,"ancestors":9751,"drank":9752,"yield":9753,"hd":9754,"synthesis":9755,"researcher":9756,"modest":9757,"##var":9758,"mothers":9759,"peered":9760,"voluntary":9761,"homeland":9762,"##the":9763,"acclaim":9764,"##igan":9765,"static":9766,"valve":9767,"luxembourg":9768,"alto":9769,"carroll":9770,"fe":9771,"receptor":9772,"norton":9773,"ambulance":9774,"##tian":9775,"johnston":9776,"catholics":9777,"depicting":9778,"jointly":9779,"elephant":9780,"gloria":9781,"mentor":9782,"badge":9783,"ahmad":9784,"distinguish":9785,"remarked":9786,"councils":9787,"precisely":9788,"allison":9789,"advancing":9790,"detection":9791,"crowded":9792,"##10":9793,"cooperative":9794,"ankle":9795,"mercedes":9796,"dagger":9797,"surrendered":9798,"pollution":9799,"commit":9800,"subway":9801,"jeffrey":9802,"lesson":9803,"sculptures":9804,"provider":9805,"##fication":9806,"membrane":9807,"timothy":9808,"rectangular":9809,"fiscal":9810,"heating":9811,"teammate":9812,"basket":9813,"particle":9814,"anonymous":9815,"deployment":9816,"##ple":9817,"missiles":9818,"courthouse":9819,"proportion":9820,"shoe":9821,"sec":9822,"##ller":9823,"complaints":9824,"forbes":9825,"blacks":9826,"abandon":9827,"remind":9828,"sizes":9829,"overwhelming":9830,"autobiography":9831,"natalie":9832,"##awa":9833,"risks":9834,"contestant":9835,"countryside":9836,"babies":9837,"scorer":9838,"invaded":9839,"enclosed":9840,"proceed":9841,"hurling":9842,"disorders":9843,"##cu":9844,"reflecting":9845,"continuously":9846,"cruiser":9847,"graduates":9848,"freeway":9849,"investigated":9850,"ore":9851,"deserved":9852,"maid":9853,"blocking":9854,"phillip":9855,"jorge":9856,"shakes":9857,"dove":9858,"mann":9859,"variables":9860,"lacked":9861,"burden":9862,"accompanying":9863,"que":9864,"consistently":9865,"organizing":9866,"provisional":9867,"complained":9868,"endless":9869,"##rm":9870,"tubes":9871,"juice":9872,"georges":9873,"krishna":9874,"mick":9875,"labels":9876,"thriller":9877,"##uch":9878,"laps":9879,"arcade":9880,"sage":9881,"snail":9882,"##table":9883,"shannon":9884,"fi":9885,"laurence":9886,"seoul":9887,"vacation":9888,"presenting":9889,"hire":9890,"churchill":9891,"surprisingly":9892,"prohibited":9893,"savannah":9894,"technically":9895,"##oli":9896,"170":9897,"##lessly":9898,"testimony":9899,"suited":9900,"speeds":9901,"toys":9902,"romans":9903,"mlb":9904,"flowering":9905,"measurement":9906,"talented":9907,"kay":9908,"settings":9909,"charleston":9910,"expectations":9911,"shattered":9912,"achieving":9913,"triumph":9914,"ceremonies":9915,"portsmouth":9916,"lanes":9917,"mandatory":9918,"loser":9919,"stretching":9920,"cologne":9921,"realizes":9922,"seventy":9923,"cornell":9924,"careers":9925,"webb":9926,"##ulating":9927,"americas":9928,"budapest":9929,"ava":9930,"suspicion":9931,"##ison":9932,"yo":9933,"conrad":9934,"##hai":9935,"sterling":9936,"jessie":9937,"rector":9938,"##az":9939,"1831":9940,"transform":9941,"organize":9942,"loans":9943,"christine":9944,"volcanic":9945,"warrant":9946,"slender":9947,"summers":9948,"subfamily":9949,"newer":9950,"danced":9951,"dynamics":9952,"rhine":9953,"proceeds":9954,"heinrich":9955,"gastropod":9956,"commands":9957,"sings":9958,"facilitate":9959,"easter":9960,"ra":9961,"positioned":9962,"responses":9963,"expense":9964,"fruits":9965,"yanked":9966,"imported":9967,"25th":9968,"velvet":9969,"vic":9970,"primitive":9971,"tribune":9972,"baldwin":9973,"neighbourhood":9974,"donna":9975,"rip":9976,"hay":9977,"pr":9978,"##uro":9979,"1814":9980,"espn":9981,"welcomed":9982,"##aria":9983,"qualifier":9984,"glare":9985,"highland":9986,"timing":9987,"##cted":9988,"shells":9989,"eased":9990,"geometry":9991,"louder":9992,"exciting":9993,"slovakia":9994,"##sion":9995,"##iz":9996,"##lot":9997,"savings":9998,"prairie":9999,"##ques":10000,"marching":10001,"rafael":10002,"tonnes":10003,"##lled":10004,"curtain":10005,"preceding":10006,"shy":10007,"heal":10008,"greene":10009,"worthy":10010,"##pot":10011,"detachment":10012,"bury":10013,"sherman":10014,"##eck":10015,"reinforced":10016,"seeks":10017,"bottles":10018,"contracted":10019,"duchess":10020,"outfit":10021,"walsh":10022,"##sc":10023,"mickey":10024,"##ase":10025,"geoffrey":10026,"archer":10027,"squeeze":10028,"dawson":10029,"eliminate":10030,"invention":10031,"##enberg":10032,"neal":10033,"##eth":10034,"stance":10035,"dealer":10036,"coral":10037,"maple":10038,"retire":10039,"polo":10040,"simplified":10041,"##ht":10042,"1833":10043,"hid":10044,"watts":10045,"backwards":10046,"jules":10047,"##oke":10048,"genesis":10049,"mt":10050,"frames":10051,"rebounds":10052,"burma":10053,"woodland":10054,"moist":10055,"santos":10056,"whispers":10057,"drained":10058,"subspecies":10059,"##aa":10060,"streaming":10061,"ulster":10062,"burnt":10063,"correspondence":10064,"maternal":10065,"gerard":10066,"denis":10067,"stealing":10068,"##load":10069,"genius":10070,"duchy":10071,"##oria":10072,"inaugurated":10073,"momentum":10074,"suits":10075,"placement":10076,"sovereign":10077,"clause":10078,"thames":10079,"##hara":10080,"confederation":10081,"reservation":10082,"sketch":10083,"yankees":10084,"lets":10085,"rotten":10086,"charm":10087,"hal":10088,"verses":10089,"ultra":10090,"commercially":10091,"dot":10092,"salon":10093,"citation":10094,"adopt":10095,"winnipeg":10096,"mist":10097,"allocated":10098,"cairo":10099,"##boy":10100,"jenkins":10101,"interference":10102,"objectives":10103,"##wind":10104,"1820":10105,"portfolio":10106,"armoured":10107,"sectors":10108,"##eh":10109,"initiatives":10110,"##world":10111,"integrity":10112,"exercises":10113,"robe":10114,"tap":10115,"ab":10116,"gazed":10117,"##tones":10118,"distracted":10119,"rulers":10120,"111":10121,"favorable":10122,"jerome":10123,"tended":10124,"cart":10125,"factories":10126,"##eri":10127,"diplomat":10128,"valued":10129,"gravel":10130,"charitable":10131,"##try":10132,"calvin":10133,"exploring":10134,"chang":10135,"shepherd":10136,"terrace":10137,"pdf":10138,"pupil":10139,"##ural":10140,"reflects":10141,"ups":10142,"##rch":10143,"governors":10144,"shelf":10145,"depths":10146,"##nberg":10147,"trailed":10148,"crest":10149,"tackle":10150,"##nian":10151,"##ats":10152,"hatred":10153,"##kai":10154,"clare":10155,"makers":10156,"ethiopia":10157,"longtime":10158,"detected":10159,"embedded":10160,"lacking":10161,"slapped":10162,"rely":10163,"thomson":10164,"anticipation":10165,"iso":10166,"morton":10167,"successive":10168,"agnes":10169,"screenwriter":10170,"straightened":10171,"philippe":10172,"playwright":10173,"haunted":10174,"licence":10175,"iris":10176,"intentions":10177,"sutton":10178,"112":10179,"logical":10180,"correctly":10181,"##weight":10182,"branded":10183,"licked":10184,"tipped":10185,"silva":10186,"ricky":10187,"narrator":10188,"requests":10189,"##ents":10190,"greeted":10191,"supernatural":10192,"cow":10193,"##wald":10194,"lung":10195,"refusing":10196,"employer":10197,"strait":10198,"gaelic":10199,"liner":10200,"##piece":10201,"zoe":10202,"sabha":10203,"##mba":10204,"driveway":10205,"harvest":10206,"prints":10207,"bates":10208,"reluctantly":10209,"threshold":10210,"algebra":10211,"ira":10212,"wherever":10213,"coupled":10214,"240":10215,"assumption":10216,"picks":10217,"##air":10218,"designers":10219,"raids":10220,"gentlemen":10221,"##ean":10222,"roller":10223,"blowing":10224,"leipzig":10225,"locks":10226,"screw":10227,"dressing":10228,"strand":10229,"##lings":10230,"scar":10231,"dwarf":10232,"depicts":10233,"##nu":10234,"nods":10235,"##mine":10236,"differ":10237,"boris":10238,"##eur":10239,"yuan":10240,"flip":10241,"##gie":10242,"mob":10243,"invested":10244,"questioning":10245,"applying":10246,"##ture":10247,"shout":10248,"##sel":10249,"gameplay":10250,"blamed":10251,"illustrations":10252,"bothered":10253,"weakness":10254,"rehabilitation":10255,"##of":10256,"##zes":10257,"envelope":10258,"rumors":10259,"miners":10260,"leicester":10261,"subtle":10262,"kerry":10263,"##ico":10264,"ferguson":10265,"##fu":10266,"premiership":10267,"ne":10268,"##cat":10269,"bengali":10270,"prof":10271,"catches":10272,"remnants":10273,"dana":10274,"##rily":10275,"shouting":10276,"presidents":10277,"baltic":10278,"ought":10279,"ghosts":10280,"dances":10281,"sailors":10282,"shirley":10283,"fancy":10284,"dominic":10285,"##bie":10286,"madonna":10287,"##rick":10288,"bark":10289,"buttons":10290,"gymnasium":10291,"ashes":10292,"liver":10293,"toby":10294,"oath":10295,"providence":10296,"doyle":10297,"evangelical":10298,"nixon":10299,"cement":10300,"carnegie":10301,"embarked":10302,"hatch":10303,"surroundings":10304,"guarantee":10305,"needing":10306,"pirate":10307,"essence":10308,"##bee":10309,"filter":10310,"crane":10311,"hammond":10312,"projected":10313,"immune":10314,"percy":10315,"twelfth":10316,"##ult":10317,"regent":10318,"doctoral":10319,"damon":10320,"mikhail":10321,"##ichi":10322,"lu":10323,"critically":10324,"elect":10325,"realised":10326,"abortion":10327,"acute":10328,"screening":10329,"mythology":10330,"steadily":10331,"##fc":10332,"frown":10333,"nottingham":10334,"kirk":10335,"wa":10336,"minneapolis":10337,"##rra":10338,"module":10339,"algeria":10340,"mc":10341,"nautical":10342,"encounters":10343,"surprising":10344,"statues":10345,"availability":10346,"shirts":10347,"pie":10348,"alma":10349,"brows":10350,"munster":10351,"mack":10352,"soup":10353,"crater":10354,"tornado":10355,"sanskrit":10356,"cedar":10357,"explosive":10358,"bordered":10359,"dixon":10360,"planets":10361,"stamp":10362,"exam":10363,"happily":10364,"##bble":10365,"carriers":10366,"kidnapped":10367,"##vis":10368,"accommodation":10369,"emigrated":10370,"##met":10371,"knockout":10372,"correspondent":10373,"violation":10374,"profits":10375,"peaks":10376,"lang":10377,"specimen":10378,"agenda":10379,"ancestry":10380,"pottery":10381,"spelling":10382,"equations":10383,"obtaining":10384,"ki":10385,"linking":10386,"1825":10387,"debris":10388,"asylum":10389,"##20":10390,"buddhism":10391,"teddy":10392,"##ants":10393,"gazette":10394,"##nger":10395,"##sse":10396,"dental":10397,"eligibility":10398,"utc":10399,"fathers":10400,"averaged":10401,"zimbabwe":10402,"francesco":10403,"coloured":10404,"hissed":10405,"translator":10406,"lynch":10407,"mandate":10408,"humanities":10409,"mackenzie":10410,"uniforms":10411,"lin":10412,"##iana":10413,"##gio":10414,"asset":10415,"mhz":10416,"fitting":10417,"samantha":10418,"genera":10419,"wei":10420,"rim":10421,"beloved":10422,"shark":10423,"riot":10424,"entities":10425,"expressions":10426,"indo":10427,"carmen":10428,"slipping":10429,"owing":10430,"abbot":10431,"neighbor":10432,"sidney":10433,"##av":10434,"rats":10435,"recommendations":10436,"encouraging":10437,"squadrons":10438,"anticipated":10439,"commanders":10440,"conquered":10441,"##oto":10442,"donations":10443,"diagnosed":10444,"##mond":10445,"divide":10446,"##iva":10447,"guessed":10448,"decoration":10449,"vernon":10450,"auditorium":10451,"revelation":10452,"conversations":10453,"##kers":10454,"##power":10455,"herzegovina":10456,"dash":10457,"alike":10458,"protested":10459,"lateral":10460,"herman":10461,"accredited":10462,"mg":10463,"##gent":10464,"freeman":10465,"mel":10466,"fiji":10467,"crow":10468,"crimson":10469,"##rine":10470,"livestock":10471,"##pped":10472,"humanitarian":10473,"bored":10474,"oz":10475,"whip":10476,"##lene":10477,"##ali":10478,"legitimate":10479,"alter":10480,"grinning":10481,"spelled":10482,"anxious":10483,"oriental":10484,"wesley":10485,"##nin":10486,"##hole":10487,"carnival":10488,"controller":10489,"detect":10490,"##ssa":10491,"bowed":10492,"educator":10493,"kosovo":10494,"macedonia":10495,"##sin":10496,"occupy":10497,"mastering":10498,"stephanie":10499,"janeiro":10500,"para":10501,"unaware":10502,"nurses":10503,"noon":10504,"135":10505,"cam":10506,"hopefully":10507,"ranger":10508,"combine":10509,"sociology":10510,"polar":10511,"rica":10512,"##eer":10513,"neill":10514,"##sman":10515,"holocaust":10516,"##ip":10517,"doubled":10518,"lust":10519,"1828":10520,"109":10521,"decent":10522,"cooling":10523,"unveiled":10524,"##card":10525,"1829":10526,"nsw":10527,"homer":10528,"chapman":10529,"meyer":10530,"##gin":10531,"dive":10532,"mae":10533,"reagan":10534,"expertise":10535,"##gled":10536,"darwin":10537,"brooke":10538,"sided":10539,"prosecution":10540,"investigating":10541,"comprised":10542,"petroleum":10543,"genres":10544,"reluctant":10545,"differently":10546,"trilogy":10547,"johns":10548,"vegetables":10549,"corpse":10550,"highlighted":10551,"lounge":10552,"pension":10553,"unsuccessfully":10554,"elegant":10555,"aided":10556,"ivory":10557,"beatles":10558,"amelia":10559,"cain":10560,"dubai":10561,"sunny":10562,"immigrant":10563,"babe":10564,"click":10565,"##nder":10566,"underwater":10567,"pepper":10568,"combining":10569,"mumbled":10570,"atlas":10571,"horns":10572,"accessed":10573,"ballad":10574,"physicians":10575,"homeless":10576,"gestured":10577,"rpm":10578,"freak":10579,"louisville":10580,"corporations":10581,"patriots":10582,"prizes":10583,"rational":10584,"warn":10585,"modes":10586,"decorative":10587,"overnight":10588,"din":10589,"troubled":10590,"phantom":10591,"##ort":10592,"monarch":10593,"sheer":10594,"##dorf":10595,"generals":10596,"guidelines":10597,"organs":10598,"addresses":10599,"##zon":10600,"enhance":10601,"curling":10602,"parishes":10603,"cord":10604,"##kie":10605,"linux":10606,"caesar":10607,"deutsche":10608,"bavaria":10609,"##bia":10610,"coleman":10611,"cyclone":10612,"##eria":10613,"bacon":10614,"petty":10615,"##yama":10616,"##old":10617,"hampton":10618,"diagnosis":10619,"1824":10620,"throws":10621,"complexity":10622,"rita":10623,"disputed":10624,"##₃":10625,"pablo":10626,"##sch":10627,"marketed":10628,"trafficking":10629,"##ulus":10630,"examine":10631,"plague":10632,"formats":10633,"##oh":10634,"vault":10635,"faithful":10636,"##bourne":10637,"webster":10638,"##ox":10639,"highlights":10640,"##ient":10641,"##ann":10642,"phones":10643,"vacuum":10644,"sandwich":10645,"modeling":10646,"##gated":10647,"bolivia":10648,"clergy":10649,"qualities":10650,"isabel":10651,"##nas":10652,"##ars":10653,"wears":10654,"screams":10655,"reunited":10656,"annoyed":10657,"bra":10658,"##ancy":10659,"##rate":10660,"differential":10661,"transmitter":10662,"tattoo":10663,"container":10664,"poker":10665,"##och":10666,"excessive":10667,"resides":10668,"cowboys":10669,"##tum":10670,"augustus":10671,"trash":10672,"providers":10673,"statute":10674,"retreated":10675,"balcony":10676,"reversed":10677,"void":10678,"storey":10679,"preceded":10680,"masses":10681,"leap":10682,"laughs":10683,"neighborhoods":10684,"wards":10685,"schemes":10686,"falcon":10687,"santo":10688,"battlefield":10689,"pad":10690,"ronnie":10691,"thread":10692,"lesbian":10693,"venus":10694,"##dian":10695,"beg":10696,"sandstone":10697,"daylight":10698,"punched":10699,"gwen":10700,"analog":10701,"stroked":10702,"wwe":10703,"acceptable":10704,"measurements":10705,"dec":10706,"toxic":10707,"##kel":10708,"adequate":10709,"surgical":10710,"economist":10711,"parameters":10712,"varsity":10713,"##sberg":10714,"quantity":10715,"ella":10716,"##chy":10717,"##rton":10718,"countess":10719,"generating":10720,"precision":10721,"diamonds":10722,"expressway":10723,"ga":10724,"##ı":10725,"1821":10726,"uruguay":10727,"talents":10728,"galleries":10729,"expenses":10730,"scanned":10731,"colleague":10732,"outlets":10733,"ryder":10734,"lucien":10735,"##ila":10736,"paramount":10737,"##bon":10738,"syracuse":10739,"dim":10740,"fangs":10741,"gown":10742,"sweep":10743,"##sie":10744,"toyota":10745,"missionaries":10746,"websites":10747,"##nsis":10748,"sentences":10749,"adviser":10750,"val":10751,"trademark":10752,"spells":10753,"##plane":10754,"patience":10755,"starter":10756,"slim":10757,"##borg":10758,"toe":10759,"incredibly":10760,"shoots":10761,"elliot":10762,"nobility":10763,"##wyn":10764,"cowboy":10765,"endorsed":10766,"gardner":10767,"tendency":10768,"persuaded":10769,"organisms":10770,"emissions":10771,"kazakhstan":10772,"amused":10773,"boring":10774,"chips":10775,"themed":10776,"##hand":10777,"llc":10778,"constantinople":10779,"chasing":10780,"systematic":10781,"guatemala":10782,"borrowed":10783,"erin":10784,"carey":10785,"##hard":10786,"highlands":10787,"struggles":10788,"1810":10789,"##ifying":10790,"##ced":10791,"wong":10792,"exceptions":10793,"develops":10794,"enlarged":10795,"kindergarten":10796,"castro":10797,"##ern":10798,"##rina":10799,"leigh":10800,"zombie":10801,"juvenile":10802,"##most":10803,"consul":10804,"##nar":10805,"sailor":10806,"hyde":10807,"clarence":10808,"intensive":10809,"pinned":10810,"nasty":10811,"useless":10812,"jung":10813,"clayton":10814,"stuffed":10815,"exceptional":10816,"ix":10817,"apostolic":10818,"230":10819,"transactions":10820,"##dge":10821,"exempt":10822,"swinging":10823,"cove":10824,"religions":10825,"##ash":10826,"shields":10827,"dairy":10828,"bypass":10829,"190":10830,"pursuing":10831,"bug":10832,"joyce":10833,"bombay":10834,"chassis":10835,"southampton":10836,"chat":10837,"interact":10838,"redesignated":10839,"##pen":10840,"nascar":10841,"pray":10842,"salmon":10843,"rigid":10844,"regained":10845,"malaysian":10846,"grim":10847,"publicity":10848,"constituted":10849,"capturing":10850,"toilet":10851,"delegate":10852,"purely":10853,"tray":10854,"drift":10855,"loosely":10856,"striker":10857,"weakened":10858,"trinidad":10859,"mitch":10860,"itv":10861,"defines":10862,"transmitted":10863,"ming":10864,"scarlet":10865,"nodding":10866,"fitzgerald":10867,"fu":10868,"narrowly":10869,"sp":10870,"tooth":10871,"standings":10872,"virtue":10873,"##₁":10874,"##wara":10875,"##cting":10876,"chateau":10877,"gloves":10878,"lid":10879,"##nel":10880,"hurting":10881,"conservatory":10882,"##pel":10883,"sinclair":10884,"reopened":10885,"sympathy":10886,"nigerian":10887,"strode":10888,"advocated":10889,"optional":10890,"chronic":10891,"discharge":10892,"##rc":10893,"suck":10894,"compatible":10895,"laurel":10896,"stella":10897,"shi":10898,"fails":10899,"wage":10900,"dodge":10901,"128":10902,"informal":10903,"sorts":10904,"levi":10905,"buddha":10906,"villagers":10907,"##aka":10908,"chronicles":10909,"heavier":10910,"summoned":10911,"gateway":10912,"3000":10913,"eleventh":10914,"jewelry":10915,"translations":10916,"accordingly":10917,"seas":10918,"##ency":10919,"fiber":10920,"pyramid":10921,"cubic":10922,"dragging":10923,"##ista":10924,"caring":10925,"##ops":10926,"android":10927,"contacted":10928,"lunar":10929,"##dt":10930,"kai":10931,"lisbon":10932,"patted":10933,"1826":10934,"sacramento":10935,"theft":10936,"madagascar":10937,"subtropical":10938,"disputes":10939,"ta":10940,"holidays":10941,"piper":10942,"willow":10943,"mare":10944,"cane":10945,"itunes":10946,"newfoundland":10947,"benny":10948,"companions":10949,"dong":10950,"raj":10951,"observe":10952,"roar":10953,"charming":10954,"plaque":10955,"tibetan":10956,"fossils":10957,"enacted":10958,"manning":10959,"bubble":10960,"tina":10961,"tanzania":10962,"##eda":10963,"##hir":10964,"funk":10965,"swamp":10966,"deputies":10967,"cloak":10968,"ufc":10969,"scenario":10970,"par":10971,"scratch":10972,"metals":10973,"anthem":10974,"guru":10975,"engaging":10976,"specially":10977,"##boat":10978,"dialects":10979,"nineteen":10980,"cecil":10981,"duet":10982,"disability":10983,"messenger":10984,"unofficial":10985,"##lies":10986,"defunct":10987,"eds":10988,"moonlight":10989,"drainage":10990,"surname":10991,"puzzle":10992,"honda":10993,"switching":10994,"conservatives":10995,"mammals":10996,"knox":10997,"broadcaster":10998,"sidewalk":10999,"cope":11000,"##ried":11001,"benson":11002,"princes":11003,"peterson":11004,"##sal":11005,"bedford":11006,"sharks":11007,"eli":11008,"wreck":11009,"alberto":11010,"gasp":11011,"archaeology":11012,"lgbt":11013,"teaches":11014,"securities":11015,"madness":11016,"compromise":11017,"waving":11018,"coordination":11019,"davidson":11020,"visions":11021,"leased":11022,"possibilities":11023,"eighty":11024,"jun":11025,"fernandez":11026,"enthusiasm":11027,"assassin":11028,"sponsorship":11029,"reviewer":11030,"kingdoms":11031,"estonian":11032,"laboratories":11033,"##fy":11034,"##nal":11035,"applies":11036,"verb":11037,"celebrations":11038,"##zzo":11039,"rowing":11040,"lightweight":11041,"sadness":11042,"submit":11043,"mvp":11044,"balanced":11045,"dude":11046,"##vas":11047,"explicitly":11048,"metric":11049,"magnificent":11050,"mound":11051,"brett":11052,"mohammad":11053,"mistakes":11054,"irregular":11055,"##hing":11056,"##ass":11057,"sanders":11058,"betrayed":11059,"shipped":11060,"surge":11061,"##enburg":11062,"reporters":11063,"termed":11064,"georg":11065,"pity":11066,"verbal":11067,"bulls":11068,"abbreviated":11069,"enabling":11070,"appealed":11071,"##are":11072,"##atic":11073,"sicily":11074,"sting":11075,"heel":11076,"sweetheart":11077,"bart":11078,"spacecraft":11079,"brutal":11080,"monarchy":11081,"##tter":11082,"aberdeen":11083,"cameo":11084,"diane":11085,"##ub":11086,"survivor":11087,"clyde":11088,"##aries":11089,"complaint":11090,"##makers":11091,"clarinet":11092,"delicious":11093,"chilean":11094,"karnataka":11095,"coordinates":11096,"1818":11097,"panties":11098,"##rst":11099,"pretending":11100,"ar":11101,"dramatically":11102,"kiev":11103,"bella":11104,"tends":11105,"distances":11106,"113":11107,"catalog":11108,"launching":11109,"instances":11110,"telecommunications":11111,"portable":11112,"lindsay":11113,"vatican":11114,"##eim":11115,"angles":11116,"aliens":11117,"marker":11118,"stint":11119,"screens":11120,"bolton":11121,"##rne":11122,"judy":11123,"wool":11124,"benedict":11125,"plasma":11126,"europa":11127,"spark":11128,"imaging":11129,"filmmaker":11130,"swiftly":11131,"##een":11132,"contributor":11133,"##nor":11134,"opted":11135,"stamps":11136,"apologize":11137,"financing":11138,"butter":11139,"gideon":11140,"sophisticated":11141,"alignment":11142,"avery":11143,"chemicals":11144,"yearly":11145,"speculation":11146,"prominence":11147,"professionally":11148,"##ils":11149,"immortal":11150,"institutional":11151,"inception":11152,"wrists":11153,"identifying":11154,"tribunal":11155,"derives":11156,"gains":11157,"##wo":11158,"papal":11159,"preference":11160,"linguistic":11161,"vince":11162,"operative":11163,"brewery":11164,"##ont":11165,"unemployment":11166,"boyd":11167,"##ured":11168,"##outs":11169,"albeit":11170,"prophet":11171,"1813":11172,"bi":11173,"##rr":11174,"##face":11175,"##rad":11176,"quarterly":11177,"asteroid":11178,"cleaned":11179,"radius":11180,"temper":11181,"##llen":11182,"telugu":11183,"jerk":11184,"viscount":11185,"menu":11186,"##ote":11187,"glimpse":11188,"##aya":11189,"yacht":11190,"hawaiian":11191,"baden":11192,"##rl":11193,"laptop":11194,"readily":11195,"##gu":11196,"monetary":11197,"offshore":11198,"scots":11199,"watches":11200,"##yang":11201,"##arian":11202,"upgrade":11203,"needle":11204,"xbox":11205,"lea":11206,"encyclopedia":11207,"flank":11208,"fingertips":11209,"##pus":11210,"delight":11211,"teachings":11212,"confirm":11213,"roth":11214,"beaches":11215,"midway":11216,"winters":11217,"##iah":11218,"teasing":11219,"daytime":11220,"beverly":11221,"gambling":11222,"bonnie":11223,"##backs":11224,"regulated":11225,"clement":11226,"hermann":11227,"tricks":11228,"knot":11229,"##shing":11230,"##uring":11231,"##vre":11232,"detached":11233,"ecological":11234,"owed":11235,"specialty":11236,"byron":11237,"inventor":11238,"bats":11239,"stays":11240,"screened":11241,"unesco":11242,"midland":11243,"trim":11244,"affection":11245,"##ander":11246,"##rry":11247,"jess":11248,"thoroughly":11249,"feedback":11250,"##uma":11251,"chennai":11252,"strained":11253,"heartbeat":11254,"wrapping":11255,"overtime":11256,"pleaded":11257,"##sworth":11258,"mon":11259,"leisure":11260,"oclc":11261,"##tate":11262,"##ele":11263,"feathers":11264,"angelo":11265,"thirds":11266,"nuts":11267,"surveys":11268,"clever":11269,"gill":11270,"commentator":11271,"##dos":11272,"darren":11273,"rides":11274,"gibraltar":11275,"##nc":11276,"##mu":11277,"dissolution":11278,"dedication":11279,"shin":11280,"meals":11281,"saddle":11282,"elvis":11283,"reds":11284,"chaired":11285,"taller":11286,"appreciation":11287,"functioning":11288,"niece":11289,"favored":11290,"advocacy":11291,"robbie":11292,"criminals":11293,"suffolk":11294,"yugoslav":11295,"passport":11296,"constable":11297,"congressman":11298,"hastings":11299,"vera":11300,"##rov":11301,"consecrated":11302,"sparks":11303,"ecclesiastical":11304,"confined":11305,"##ovich":11306,"muller":11307,"floyd":11308,"nora":11309,"1822":11310,"paved":11311,"1827":11312,"cumberland":11313,"ned":11314,"saga":11315,"spiral":11316,"##flow":11317,"appreciated":11318,"yi":11319,"collaborative":11320,"treating":11321,"similarities":11322,"feminine":11323,"finishes":11324,"##ib":11325,"jade":11326,"import":11327,"##nse":11328,"##hot":11329,"champagne":11330,"mice":11331,"securing":11332,"celebrities":11333,"helsinki":11334,"attributes":11335,"##gos":11336,"cousins":11337,"phases":11338,"ache":11339,"lucia":11340,"gandhi":11341,"submission":11342,"vicar":11343,"spear":11344,"shine":11345,"tasmania":11346,"biting":11347,"detention":11348,"constitute":11349,"tighter":11350,"seasonal":11351,"##gus":11352,"terrestrial":11353,"matthews":11354,"##oka":11355,"effectiveness":11356,"parody":11357,"philharmonic":11358,"##onic":11359,"1816":11360,"strangers":11361,"encoded":11362,"consortium":11363,"guaranteed":11364,"regards":11365,"shifts":11366,"tortured":11367,"collision":11368,"supervisor":11369,"inform":11370,"broader":11371,"insight":11372,"theaters":11373,"armour":11374,"emeritus":11375,"blink":11376,"incorporates":11377,"mapping":11378,"##50":11379,"##ein":11380,"handball":11381,"flexible":11382,"##nta":11383,"substantially":11384,"generous":11385,"thief":11386,"##own":11387,"carr":11388,"loses":11389,"1793":11390,"prose":11391,"ucla":11392,"romeo":11393,"generic":11394,"metallic":11395,"realization":11396,"damages":11397,"mk":11398,"commissioners":11399,"zach":11400,"default":11401,"##ther":11402,"helicopters":11403,"lengthy":11404,"stems":11405,"spa":11406,"partnered":11407,"spectators":11408,"rogue":11409,"indication":11410,"penalties":11411,"teresa":11412,"1801":11413,"sen":11414,"##tric":11415,"dalton":11416,"##wich":11417,"irving":11418,"photographic":11419,"##vey":11420,"dell":11421,"deaf":11422,"peters":11423,"excluded":11424,"unsure":11425,"##vable":11426,"patterson":11427,"crawled":11428,"##zio":11429,"resided":11430,"whipped":11431,"latvia":11432,"slower":11433,"ecole":11434,"pipes":11435,"employers":11436,"maharashtra":11437,"comparable":11438,"va":11439,"textile":11440,"pageant":11441,"##gel":11442,"alphabet":11443,"binary":11444,"irrigation":11445,"chartered":11446,"choked":11447,"antoine":11448,"offs":11449,"waking":11450,"supplement":11451,"##wen":11452,"quantities":11453,"demolition":11454,"regain":11455,"locate":11456,"urdu":11457,"folks":11458,"alt":11459,"114":11460,"##mc":11461,"scary":11462,"andreas":11463,"whites":11464,"##ava":11465,"classrooms":11466,"mw":11467,"aesthetic":11468,"publishes":11469,"valleys":11470,"guides":11471,"cubs":11472,"johannes":11473,"bryant":11474,"conventions":11475,"affecting":11476,"##itt":11477,"drain":11478,"awesome":11479,"isolation":11480,"prosecutor":11481,"ambitious":11482,"apology":11483,"captive":11484,"downs":11485,"atmospheric":11486,"lorenzo":11487,"aisle":11488,"beef":11489,"foul":11490,"##onia":11491,"kidding":11492,"composite":11493,"disturbed":11494,"illusion":11495,"natives":11496,"##ffer":11497,"emi":11498,"rockets":11499,"riverside":11500,"wartime":11501,"painters":11502,"adolf":11503,"melted":11504,"##ail":11505,"uncertainty":11506,"simulation":11507,"hawks":11508,"progressed":11509,"meantime":11510,"builder":11511,"spray":11512,"breach":11513,"unhappy":11514,"regina":11515,"russians":11516,"##urg":11517,"determining":11518,"##tation":11519,"tram":11520,"1806":11521,"##quin":11522,"aging":11523,"##12":11524,"1823":11525,"garion":11526,"rented":11527,"mister":11528,"diaz":11529,"terminated":11530,"clip":11531,"1817":11532,"depend":11533,"nervously":11534,"disco":11535,"owe":11536,"defenders":11537,"shiva":11538,"notorious":11539,"disbelief":11540,"shiny":11541,"worcester":11542,"##gation":11543,"##yr":11544,"trailing":11545,"undertook":11546,"islander":11547,"belarus":11548,"limitations":11549,"watershed":11550,"fuller":11551,"overlooking":11552,"utilized":11553,"raphael":11554,"1819":11555,"synthetic":11556,"breakdown":11557,"klein":11558,"##nate":11559,"moaned":11560,"memoir":11561,"lamb":11562,"practicing":11563,"##erly":11564,"cellular":11565,"arrows":11566,"exotic":11567,"##graphy":11568,"witches":11569,"117":11570,"charted":11571,"rey":11572,"hut":11573,"hierarchy":11574,"subdivision":11575,"freshwater":11576,"giuseppe":11577,"aloud":11578,"reyes":11579,"qatar":11580,"marty":11581,"sideways":11582,"utterly":11583,"sexually":11584,"jude":11585,"prayers":11586,"mccarthy":11587,"softball":11588,"blend":11589,"damien":11590,"##gging":11591,"##metric":11592,"wholly":11593,"erupted":11594,"lebanese":11595,"negro":11596,"revenues":11597,"tasted":11598,"comparative":11599,"teamed":11600,"transaction":11601,"labeled":11602,"maori":11603,"sovereignty":11604,"parkway":11605,"trauma":11606,"gran":11607,"malay":11608,"121":11609,"advancement":11610,"descendant":11611,"2020":11612,"buzz":11613,"salvation":11614,"inventory":11615,"symbolic":11616,"##making":11617,"antarctica":11618,"mps":11619,"##gas":11620,"##bro":11621,"mohammed":11622,"myanmar":11623,"holt":11624,"submarines":11625,"tones":11626,"##lman":11627,"locker":11628,"patriarch":11629,"bangkok":11630,"emerson":11631,"remarks":11632,"predators":11633,"kin":11634,"afghan":11635,"confession":11636,"norwich":11637,"rental":11638,"emerge":11639,"advantages":11640,"##zel":11641,"rca":11642,"##hold":11643,"shortened":11644,"storms":11645,"aidan":11646,"##matic":11647,"autonomy":11648,"compliance":11649,"##quet":11650,"dudley":11651,"atp":11652,"##osis":11653,"1803":11654,"motto":11655,"documentation":11656,"summary":11657,"professors":11658,"spectacular":11659,"christina":11660,"archdiocese":11661,"flashing":11662,"innocence":11663,"remake":11664,"##dell":11665,"psychic":11666,"reef":11667,"scare":11668,"employ":11669,"rs":11670,"sticks":11671,"meg":11672,"gus":11673,"leans":11674,"##ude":11675,"accompany":11676,"bergen":11677,"tomas":11678,"##iko":11679,"doom":11680,"wages":11681,"pools":11682,"##nch":11683,"##bes":11684,"breasts":11685,"scholarly":11686,"alison":11687,"outline":11688,"brittany":11689,"breakthrough":11690,"willis":11691,"realistic":11692,"##cut":11693,"##boro":11694,"competitor":11695,"##stan":11696,"pike":11697,"picnic":11698,"icon":11699,"designing":11700,"commercials":11701,"washing":11702,"villain":11703,"skiing":11704,"micro":11705,"costumes":11706,"auburn":11707,"halted":11708,"executives":11709,"##hat":11710,"logistics":11711,"cycles":11712,"vowel":11713,"applicable":11714,"barrett":11715,"exclaimed":11716,"eurovision":11717,"eternity":11718,"ramon":11719,"##umi":11720,"##lls":11721,"modifications":11722,"sweeping":11723,"disgust":11724,"##uck":11725,"torch":11726,"aviv":11727,"ensuring":11728,"rude":11729,"dusty":11730,"sonic":11731,"donovan":11732,"outskirts":11733,"cu":11734,"pathway":11735,"##band":11736,"##gun":11737,"##lines":11738,"disciplines":11739,"acids":11740,"cadet":11741,"paired":11742,"##40":11743,"sketches":11744,"##sive":11745,"marriages":11746,"##⁺":11747,"folding":11748,"peers":11749,"slovak":11750,"implies":11751,"admired":11752,"##beck":11753,"1880s":11754,"leopold":11755,"instinct":11756,"attained":11757,"weston":11758,"megan":11759,"horace":11760,"##ination":11761,"dorsal":11762,"ingredients":11763,"evolutionary":11764,"##its":11765,"complications":11766,"deity":11767,"lethal":11768,"brushing":11769,"levy":11770,"deserted":11771,"institutes":11772,"posthumously":11773,"delivering":11774,"telescope":11775,"coronation":11776,"motivated":11777,"rapids":11778,"luc":11779,"flicked":11780,"pays":11781,"volcano":11782,"tanner":11783,"weighed":11784,"##nica":11785,"crowds":11786,"frankie":11787,"gifted":11788,"addressing":11789,"granddaughter":11790,"winding":11791,"##rna":11792,"constantine":11793,"gomez":11794,"##front":11795,"landscapes":11796,"rudolf":11797,"anthropology":11798,"slate":11799,"werewolf":11800,"##lio":11801,"astronomy":11802,"circa":11803,"rouge":11804,"dreaming":11805,"sack":11806,"knelt":11807,"drowned":11808,"naomi":11809,"prolific":11810,"tracked":11811,"freezing":11812,"herb":11813,"##dium":11814,"agony":11815,"randall":11816,"twisting":11817,"wendy":11818,"deposit":11819,"touches":11820,"vein":11821,"wheeler":11822,"##bbled":11823,"##bor":11824,"batted":11825,"retaining":11826,"tire":11827,"presently":11828,"compare":11829,"specification":11830,"daemon":11831,"nigel":11832,"##grave":11833,"merry":11834,"recommendation":11835,"czechoslovakia":11836,"sandra":11837,"ng":11838,"roma":11839,"##sts":11840,"lambert":11841,"inheritance":11842,"sheikh":11843,"winchester":11844,"cries":11845,"examining":11846,"##yle":11847,"comeback":11848,"cuisine":11849,"nave":11850,"##iv":11851,"ko":11852,"retrieve":11853,"tomatoes":11854,"barker":11855,"polished":11856,"defining":11857,"irene":11858,"lantern":11859,"personalities":11860,"begging":11861,"tract":11862,"swore":11863,"1809":11864,"175":11865,"##gic":11866,"omaha":11867,"brotherhood":11868,"##rley":11869,"haiti":11870,"##ots":11871,"exeter":11872,"##ete":11873,"##zia":11874,"steele":11875,"dumb":11876,"pearson":11877,"210":11878,"surveyed":11879,"elisabeth":11880,"trends":11881,"##ef":11882,"fritz":11883,"##rf":11884,"premium":11885,"bugs":11886,"fraction":11887,"calmly":11888,"viking":11889,"##birds":11890,"tug":11891,"inserted":11892,"unusually":11893,"##ield":11894,"confronted":11895,"distress":11896,"crashing":11897,"brent":11898,"turks":11899,"resign":11900,"##olo":11901,"cambodia":11902,"gabe":11903,"sauce":11904,"##kal":11905,"evelyn":11906,"116":11907,"extant":11908,"clusters":11909,"quarry":11910,"teenagers":11911,"luna":11912,"##lers":11913,"##ister":11914,"affiliation":11915,"drill":11916,"##ashi":11917,"panthers":11918,"scenic":11919,"libya":11920,"anita":11921,"strengthen":11922,"inscriptions":11923,"##cated":11924,"lace":11925,"sued":11926,"judith":11927,"riots":11928,"##uted":11929,"mint":11930,"##eta":11931,"preparations":11932,"midst":11933,"dub":11934,"challenger":11935,"##vich":11936,"mock":11937,"cf":11938,"displaced":11939,"wicket":11940,"breaths":11941,"enables":11942,"schmidt":11943,"analyst":11944,"##lum":11945,"ag":11946,"highlight":11947,"automotive":11948,"axe":11949,"josef":11950,"newark":11951,"sufficiently":11952,"resembles":11953,"50th":11954,"##pal":11955,"flushed":11956,"mum":11957,"traits":11958,"##ante":11959,"commodore":11960,"incomplete":11961,"warming":11962,"titular":11963,"ceremonial":11964,"ethical":11965,"118":11966,"celebrating":11967,"eighteenth":11968,"cao":11969,"lima":11970,"medalist":11971,"mobility":11972,"strips":11973,"snakes":11974,"##city":11975,"miniature":11976,"zagreb":11977,"barton":11978,"escapes":11979,"umbrella":11980,"automated":11981,"doubted":11982,"differs":11983,"cooled":11984,"georgetown":11985,"dresden":11986,"cooked":11987,"fade":11988,"wyatt":11989,"rna":11990,"jacobs":11991,"carlton":11992,"abundant":11993,"stereo":11994,"boost":11995,"madras":11996,"inning":11997,"##hia":11998,"spur":11999,"ip":12000,"malayalam":12001,"begged":12002,"osaka":12003,"groan":12004,"escaping":12005,"charging":12006,"dose":12007,"vista":12008,"##aj":12009,"bud":12010,"papa":12011,"communists":12012,"advocates":12013,"edged":12014,"tri":12015,"##cent":12016,"resemble":12017,"peaking":12018,"necklace":12019,"fried":12020,"montenegro":12021,"saxony":12022,"goose":12023,"glances":12024,"stuttgart":12025,"curator":12026,"recruit":12027,"grocery":12028,"sympathetic":12029,"##tting":12030,"##fort":12031,"127":12032,"lotus":12033,"randolph":12034,"ancestor":12035,"##rand":12036,"succeeding":12037,"jupiter":12038,"1798":12039,"macedonian":12040,"##heads":12041,"hiking":12042,"1808":12043,"handing":12044,"fischer":12045,"##itive":12046,"garbage":12047,"node":12048,"##pies":12049,"prone":12050,"singular":12051,"papua":12052,"inclined":12053,"attractions":12054,"italia":12055,"pouring":12056,"motioned":12057,"grandma":12058,"garnered":12059,"jacksonville":12060,"corp":12061,"ego":12062,"ringing":12063,"aluminum":12064,"##hausen":12065,"ordering":12066,"##foot":12067,"drawer":12068,"traders":12069,"synagogue":12070,"##play":12071,"##kawa":12072,"resistant":12073,"wandering":12074,"fragile":12075,"fiona":12076,"teased":12077,"var":12078,"hardcore":12079,"soaked":12080,"jubilee":12081,"decisive":12082,"exposition":12083,"mercer":12084,"poster":12085,"valencia":12086,"hale":12087,"kuwait":12088,"1811":12089,"##ises":12090,"##wr":12091,"##eed":12092,"tavern":12093,"gamma":12094,"122":12095,"johan":12096,"##uer":12097,"airways":12098,"amino":12099,"gil":12100,"##ury":12101,"vocational":12102,"domains":12103,"torres":12104,"##sp":12105,"generator":12106,"folklore":12107,"outcomes":12108,"##keeper":12109,"canberra":12110,"shooter":12111,"fl":12112,"beams":12113,"confrontation":12114,"##lling":12115,"##gram":12116,"feb":12117,"aligned":12118,"forestry":12119,"pipeline":12120,"jax":12121,"motorway":12122,"conception":12123,"decay":12124,"##tos":12125,"coffin":12126,"##cott":12127,"stalin":12128,"1805":12129,"escorted":12130,"minded":12131,"##nam":12132,"sitcom":12133,"purchasing":12134,"twilight":12135,"veronica":12136,"additions":12137,"passive":12138,"tensions":12139,"straw":12140,"123":12141,"frequencies":12142,"1804":12143,"refugee":12144,"cultivation":12145,"##iate":12146,"christie":12147,"clary":12148,"bulletin":12149,"crept":12150,"disposal":12151,"##rich":12152,"##zong":12153,"processor":12154,"crescent":12155,"##rol":12156,"bmw":12157,"emphasized":12158,"whale":12159,"nazis":12160,"aurora":12161,"##eng":12162,"dwelling":12163,"hauled":12164,"sponsors":12165,"toledo":12166,"mega":12167,"ideology":12168,"theatres":12169,"tessa":12170,"cerambycidae":12171,"saves":12172,"turtle":12173,"cone":12174,"suspects":12175,"kara":12176,"rusty":12177,"yelling":12178,"greeks":12179,"mozart":12180,"shades":12181,"cocked":12182,"participant":12183,"##tro":12184,"shire":12185,"spit":12186,"freeze":12187,"necessity":12188,"##cos":12189,"inmates":12190,"nielsen":12191,"councillors":12192,"loaned":12193,"uncommon":12194,"omar":12195,"peasants":12196,"botanical":12197,"offspring":12198,"daniels":12199,"formations":12200,"jokes":12201,"1794":12202,"pioneers":12203,"sigma":12204,"licensing":12205,"##sus":12206,"wheelchair":12207,"polite":12208,"1807":12209,"liquor":12210,"pratt":12211,"trustee":12212,"##uta":12213,"forewings":12214,"balloon":12215,"##zz":12216,"kilometre":12217,"camping":12218,"explicit":12219,"casually":12220,"shawn":12221,"foolish":12222,"teammates":12223,"nm":12224,"hassan":12225,"carrie":12226,"judged":12227,"satisfy":12228,"vanessa":12229,"knives":12230,"selective":12231,"cnn":12232,"flowed":12233,"##lice":12234,"eclipse":12235,"stressed":12236,"eliza":12237,"mathematician":12238,"cease":12239,"cultivated":12240,"##roy":12241,"commissions":12242,"browns":12243,"##ania":12244,"destroyers":12245,"sheridan":12246,"meadow":12247,"##rius":12248,"minerals":12249,"##cial":12250,"downstream":12251,"clash":12252,"gram":12253,"memoirs":12254,"ventures":12255,"baha":12256,"seymour":12257,"archie":12258,"midlands":12259,"edith":12260,"fare":12261,"flynn":12262,"invite":12263,"canceled":12264,"tiles":12265,"stabbed":12266,"boulder":12267,"incorporate":12268,"amended":12269,"camden":12270,"facial":12271,"mollusk":12272,"unreleased":12273,"descriptions":12274,"yoga":12275,"grabs":12276,"550":12277,"raises":12278,"ramp":12279,"shiver":12280,"##rose":12281,"coined":12282,"pioneering":12283,"tunes":12284,"qing":12285,"warwick":12286,"tops":12287,"119":12288,"melanie":12289,"giles":12290,"##rous":12291,"wandered":12292,"##inal":12293,"annexed":12294,"nov":12295,"30th":12296,"unnamed":12297,"##ished":12298,"organizational":12299,"airplane":12300,"normandy":12301,"stoke":12302,"whistle":12303,"blessing":12304,"violations":12305,"chased":12306,"holders":12307,"shotgun":12308,"##ctic":12309,"outlet":12310,"reactor":12311,"##vik":12312,"tires":12313,"tearing":12314,"shores":12315,"fortified":12316,"mascot":12317,"constituencies":12318,"nc":12319,"columnist":12320,"productive":12321,"tibet":12322,"##rta":12323,"lineage":12324,"hooked":12325,"oct":12326,"tapes":12327,"judging":12328,"cody":12329,"##gger":12330,"hansen":12331,"kashmir":12332,"triggered":12333,"##eva":12334,"solved":12335,"cliffs":12336,"##tree":12337,"resisted":12338,"anatomy":12339,"protesters":12340,"transparent":12341,"implied":12342,"##iga":12343,"injection":12344,"mattress":12345,"excluding":12346,"##mbo":12347,"defenses":12348,"helpless":12349,"devotion":12350,"##elli":12351,"growl":12352,"liberals":12353,"weber":12354,"phenomena":12355,"atoms":12356,"plug":12357,"##iff":12358,"mortality":12359,"apprentice":12360,"howe":12361,"convincing":12362,"aaa":12363,"swimmer":12364,"barber":12365,"leone":12366,"promptly":12367,"sodium":12368,"def":12369,"nowadays":12370,"arise":12371,"##oning":12372,"gloucester":12373,"corrected":12374,"dignity":12375,"norm":12376,"erie":12377,"##ders":12378,"elders":12379,"evacuated":12380,"sylvia":12381,"compression":12382,"##yar":12383,"hartford":12384,"pose":12385,"backpack":12386,"reasoning":12387,"accepts":12388,"24th":12389,"wipe":12390,"millimetres":12391,"marcel":12392,"##oda":12393,"dodgers":12394,"albion":12395,"1790":12396,"overwhelmed":12397,"aerospace":12398,"oaks":12399,"1795":12400,"showcase":12401,"acknowledge":12402,"recovering":12403,"nolan":12404,"ashe":12405,"hurts":12406,"geology":12407,"fashioned":12408,"disappearance":12409,"farewell":12410,"swollen":12411,"shrug":12412,"marquis":12413,"wimbledon":12414,"124":12415,"rue":12416,"1792":12417,"commemorate":12418,"reduces":12419,"experiencing":12420,"inevitable":12421,"calcutta":12422,"intel":12423,"##court":12424,"murderer":12425,"sticking":12426,"fisheries":12427,"imagery":12428,"bloom":12429,"280":12430,"brake":12431,"##inus":12432,"gustav":12433,"hesitation":12434,"memorable":12435,"po":12436,"viral":12437,"beans":12438,"accidents":12439,"tunisia":12440,"antenna":12441,"spilled":12442,"consort":12443,"treatments":12444,"aye":12445,"perimeter":12446,"##gard":12447,"donation":12448,"hostage":12449,"migrated":12450,"banker":12451,"addiction":12452,"apex":12453,"lil":12454,"trout":12455,"##ously":12456,"conscience":12457,"##nova":12458,"rams":12459,"sands":12460,"genome":12461,"passionate":12462,"troubles":12463,"##lets":12464,"##set":12465,"amid":12466,"##ibility":12467,"##ret":12468,"higgins":12469,"exceed":12470,"vikings":12471,"##vie":12472,"payne":12473,"##zan":12474,"muscular":12475,"##ste":12476,"defendant":12477,"sucking":12478,"##wal":12479,"ibrahim":12480,"fuselage":12481,"claudia":12482,"vfl":12483,"europeans":12484,"snails":12485,"interval":12486,"##garh":12487,"preparatory":12488,"statewide":12489,"tasked":12490,"lacrosse":12491,"viktor":12492,"##lation":12493,"angola":12494,"##hra":12495,"flint":12496,"implications":12497,"employs":12498,"teens":12499,"patrons":12500,"stall":12501,"weekends":12502,"barriers":12503,"scrambled":12504,"nucleus":12505,"tehran":12506,"jenna":12507,"parsons":12508,"lifelong":12509,"robots":12510,"displacement":12511,"5000":12512,"##bles":12513,"precipitation":12514,"##gt":12515,"knuckles":12516,"clutched":12517,"1802":12518,"marrying":12519,"ecology":12520,"marx":12521,"accusations":12522,"declare":12523,"scars":12524,"kolkata":12525,"mat":12526,"meadows":12527,"bermuda":12528,"skeleton":12529,"finalists":12530,"vintage":12531,"crawl":12532,"coordinate":12533,"affects":12534,"subjected":12535,"orchestral":12536,"mistaken":12537,"##tc":12538,"mirrors":12539,"dipped":12540,"relied":12541,"260":12542,"arches":12543,"candle":12544,"##nick":12545,"incorporating":12546,"wildly":12547,"fond":12548,"basilica":12549,"owl":12550,"fringe":12551,"rituals":12552,"whispering":12553,"stirred":12554,"feud":12555,"tertiary":12556,"slick":12557,"goat":12558,"honorable":12559,"whereby":12560,"skip":12561,"ricardo":12562,"stripes":12563,"parachute":12564,"adjoining":12565,"submerged":12566,"synthesizer":12567,"##gren":12568,"intend":12569,"positively":12570,"ninety":12571,"phi":12572,"beaver":12573,"partition":12574,"fellows":12575,"alexis":12576,"prohibition":12577,"carlisle":12578,"bizarre":12579,"fraternity":12580,"##bre":12581,"doubts":12582,"icy":12583,"cbc":12584,"aquatic":12585,"sneak":12586,"sonny":12587,"combines":12588,"airports":12589,"crude":12590,"supervised":12591,"spatial":12592,"merge":12593,"alfonso":12594,"##bic":12595,"corrupt":12596,"scan":12597,"undergo":12598,"##ams":12599,"disabilities":12600,"colombian":12601,"comparing":12602,"dolphins":12603,"perkins":12604,"##lish":12605,"reprinted":12606,"unanimous":12607,"bounced":12608,"hairs":12609,"underworld":12610,"midwest":12611,"semester":12612,"bucket":12613,"paperback":12614,"miniseries":12615,"coventry":12616,"demise":12617,"##leigh":12618,"demonstrations":12619,"sensor":12620,"rotating":12621,"yan":12622,"##hler":12623,"arrange":12624,"soils":12625,"##idge":12626,"hyderabad":12627,"labs":12628,"##dr":12629,"brakes":12630,"grandchildren":12631,"##nde":12632,"negotiated":12633,"rover":12634,"ferrari":12635,"continuation":12636,"directorate":12637,"augusta":12638,"stevenson":12639,"counterpart":12640,"gore":12641,"##rda":12642,"nursery":12643,"rican":12644,"ave":12645,"collectively":12646,"broadly":12647,"pastoral":12648,"repertoire":12649,"asserted":12650,"discovering":12651,"nordic":12652,"styled":12653,"fiba":12654,"cunningham":12655,"harley":12656,"middlesex":12657,"survives":12658,"tumor":12659,"tempo":12660,"zack":12661,"aiming":12662,"lok":12663,"urgent":12664,"##rade":12665,"##nto":12666,"devils":12667,"##ement":12668,"contractor":12669,"turin":12670,"##wl":12671,"##ool":12672,"bliss":12673,"repaired":12674,"simmons":12675,"moan":12676,"astronomical":12677,"cr":12678,"negotiate":12679,"lyric":12680,"1890s":12681,"lara":12682,"bred":12683,"clad":12684,"angus":12685,"pbs":12686,"##ience":12687,"engineered":12688,"posed":12689,"##lk":12690,"hernandez":12691,"possessions":12692,"elbows":12693,"psychiatric":12694,"strokes":12695,"confluence":12696,"electorate":12697,"lifts":12698,"campuses":12699,"lava":12700,"alps":12701,"##ep":12702,"##ution":12703,"##date":12704,"physicist":12705,"woody":12706,"##page":12707,"##ographic":12708,"##itis":12709,"juliet":12710,"reformation":12711,"sparhawk":12712,"320":12713,"complement":12714,"suppressed":12715,"jewel":12716,"##½":12717,"floated":12718,"##kas":12719,"continuity":12720,"sadly":12721,"##ische":12722,"inability":12723,"melting":12724,"scanning":12725,"paula":12726,"flour":12727,"judaism":12728,"safer":12729,"vague":12730,"##lm":12731,"solving":12732,"curb":12733,"##stown":12734,"financially":12735,"gable":12736,"bees":12737,"expired":12738,"miserable":12739,"cassidy":12740,"dominion":12741,"1789":12742,"cupped":12743,"145":12744,"robbery":12745,"facto":12746,"amos":12747,"warden":12748,"resume":12749,"tallest":12750,"marvin":12751,"ing":12752,"pounded":12753,"usd":12754,"declaring":12755,"gasoline":12756,"##aux":12757,"darkened":12758,"270":12759,"650":12760,"sophomore":12761,"##mere":12762,"erection":12763,"gossip":12764,"televised":12765,"risen":12766,"dial":12767,"##eu":12768,"pillars":12769,"##link":12770,"passages":12771,"profound":12772,"##tina":12773,"arabian":12774,"ashton":12775,"silicon":12776,"nail":12777,"##ead":12778,"##lated":12779,"##wer":12780,"##hardt":12781,"fleming":12782,"firearms":12783,"ducked":12784,"circuits":12785,"blows":12786,"waterloo":12787,"titans":12788,"##lina":12789,"atom":12790,"fireplace":12791,"cheshire":12792,"financed":12793,"activation":12794,"algorithms":12795,"##zzi":12796,"constituent":12797,"catcher":12798,"cherokee":12799,"partnerships":12800,"sexuality":12801,"platoon":12802,"tragic":12803,"vivian":12804,"guarded":12805,"whiskey":12806,"meditation":12807,"poetic":12808,"##late":12809,"##nga":12810,"##ake":12811,"porto":12812,"listeners":12813,"dominance":12814,"kendra":12815,"mona":12816,"chandler":12817,"factions":12818,"22nd":12819,"salisbury":12820,"attitudes":12821,"derivative":12822,"##ido":12823,"##haus":12824,"intake":12825,"paced":12826,"javier":12827,"illustrator":12828,"barrels":12829,"bias":12830,"cockpit":12831,"burnett":12832,"dreamed":12833,"ensuing":12834,"##anda":12835,"receptors":12836,"someday":12837,"hawkins":12838,"mattered":12839,"##lal":12840,"slavic":12841,"1799":12842,"jesuit":12843,"cameroon":12844,"wasted":12845,"tai":12846,"wax":12847,"lowering":12848,"victorious":12849,"freaking":12850,"outright":12851,"hancock":12852,"librarian":12853,"sensing":12854,"bald":12855,"calcium":12856,"myers":12857,"tablet":12858,"announcing":12859,"barack":12860,"shipyard":12861,"pharmaceutical":12862,"##uan":12863,"greenwich":12864,"flush":12865,"medley":12866,"patches":12867,"wolfgang":12868,"pt":12869,"speeches":12870,"acquiring":12871,"exams":12872,"nikolai":12873,"##gg":12874,"hayden":12875,"kannada":12876,"##type":12877,"reilly":12878,"##pt":12879,"waitress":12880,"abdomen":12881,"devastated":12882,"capped":12883,"pseudonym":12884,"pharmacy":12885,"fulfill":12886,"paraguay":12887,"1796":12888,"clicked":12889,"##trom":12890,"archipelago":12891,"syndicated":12892,"##hman":12893,"lumber":12894,"orgasm":12895,"rejection":12896,"clifford":12897,"lorraine":12898,"advent":12899,"mafia":12900,"rodney":12901,"brock":12902,"##ght":12903,"##used":12904,"##elia":12905,"cassette":12906,"chamberlain":12907,"despair":12908,"mongolia":12909,"sensors":12910,"developmental":12911,"upstream":12912,"##eg":12913,"##alis":12914,"spanning":12915,"165":12916,"trombone":12917,"basque":12918,"seeded":12919,"interred":12920,"renewable":12921,"rhys":12922,"leapt":12923,"revision":12924,"molecule":12925,"##ages":12926,"chord":12927,"vicious":12928,"nord":12929,"shivered":12930,"23rd":12931,"arlington":12932,"debts":12933,"corpus":12934,"sunrise":12935,"bays":12936,"blackburn":12937,"centimetres":12938,"##uded":12939,"shuddered":12940,"gm":12941,"strangely":12942,"gripping":12943,"cartoons":12944,"isabelle":12945,"orbital":12946,"##ppa":12947,"seals":12948,"proving":12949,"##lton":12950,"refusal":12951,"strengthened":12952,"bust":12953,"assisting":12954,"baghdad":12955,"batsman":12956,"portrayal":12957,"mara":12958,"pushes":12959,"spears":12960,"og":12961,"##cock":12962,"reside":12963,"nathaniel":12964,"brennan":12965,"1776":12966,"confirmation":12967,"caucus":12968,"##worthy":12969,"markings":12970,"yemen":12971,"nobles":12972,"ku":12973,"lazy":12974,"viewer":12975,"catalan":12976,"encompasses":12977,"sawyer":12978,"##fall":12979,"sparked":12980,"substances":12981,"patents":12982,"braves":12983,"arranger":12984,"evacuation":12985,"sergio":12986,"persuade":12987,"dover":12988,"tolerance":12989,"penguin":12990,"cum":12991,"jockey":12992,"insufficient":12993,"townships":12994,"occupying":12995,"declining":12996,"plural":12997,"processed":12998,"projection":12999,"puppet":13000,"flanders":13001,"introduces":13002,"liability":13003,"##yon":13004,"gymnastics":13005,"antwerp":13006,"taipei":13007,"hobart":13008,"candles":13009,"jeep":13010,"wes":13011,"observers":13012,"126":13013,"chaplain":13014,"bundle":13015,"glorious":13016,"##hine":13017,"hazel":13018,"flung":13019,"sol":13020,"excavations":13021,"dumped":13022,"stares":13023,"sh":13024,"bangalore":13025,"triangular":13026,"icelandic":13027,"intervals":13028,"expressing":13029,"turbine":13030,"##vers":13031,"songwriting":13032,"crafts":13033,"##igo":13034,"jasmine":13035,"ditch":13036,"rite":13037,"##ways":13038,"entertaining":13039,"comply":13040,"sorrow":13041,"wrestlers":13042,"basel":13043,"emirates":13044,"marian":13045,"rivera":13046,"helpful":13047,"##some":13048,"caution":13049,"downward":13050,"networking":13051,"##atory":13052,"##tered":13053,"darted":13054,"genocide":13055,"emergence":13056,"replies":13057,"specializing":13058,"spokesman":13059,"convenient":13060,"unlocked":13061,"fading":13062,"augustine":13063,"concentrations":13064,"resemblance":13065,"elijah":13066,"investigator":13067,"andhra":13068,"##uda":13069,"promotes":13070,"bean":13071,"##rrell":13072,"fleeing":13073,"wan":13074,"simone":13075,"announcer":13076,"##ame":13077,"##bby":13078,"lydia":13079,"weaver":13080,"132":13081,"residency":13082,"modification":13083,"##fest":13084,"stretches":13085,"##ast":13086,"alternatively":13087,"nat":13088,"lowe":13089,"lacks":13090,"##ented":13091,"pam":13092,"tile":13093,"concealed":13094,"inferior":13095,"abdullah":13096,"residences":13097,"tissues":13098,"vengeance":13099,"##ided":13100,"moisture":13101,"peculiar":13102,"groove":13103,"zip":13104,"bologna":13105,"jennings":13106,"ninja":13107,"oversaw":13108,"zombies":13109,"pumping":13110,"batch":13111,"livingston":13112,"emerald":13113,"installations":13114,"1797":13115,"peel":13116,"nitrogen":13117,"rama":13118,"##fying":13119,"##star":13120,"schooling":13121,"strands":13122,"responding":13123,"werner":13124,"##ost":13125,"lime":13126,"casa":13127,"accurately":13128,"targeting":13129,"##rod":13130,"underway":13131,"##uru":13132,"hemisphere":13133,"lester":13134,"##yard":13135,"occupies":13136,"2d":13137,"griffith":13138,"angrily":13139,"reorganized":13140,"##owing":13141,"courtney":13142,"deposited":13143,"##dd":13144,"##30":13145,"estadio":13146,"##ifies":13147,"dunn":13148,"exiled":13149,"##ying":13150,"checks":13151,"##combe":13152,"##о":13153,"##fly":13154,"successes":13155,"unexpectedly":13156,"blu":13157,"assessed":13158,"##flower":13159,"##ه":13160,"observing":13161,"sacked":13162,"spiders":13163,"kn":13164,"##tail":13165,"mu":13166,"nodes":13167,"prosperity":13168,"audrey":13169,"divisional":13170,"155":13171,"broncos":13172,"tangled":13173,"adjust":13174,"feeds":13175,"erosion":13176,"paolo":13177,"surf":13178,"directory":13179,"snatched":13180,"humid":13181,"admiralty":13182,"screwed":13183,"gt":13184,"reddish":13185,"##nese":13186,"modules":13187,"trench":13188,"lamps":13189,"bind":13190,"leah":13191,"bucks":13192,"competes":13193,"##nz":13194,"##form":13195,"transcription":13196,"##uc":13197,"isles":13198,"violently":13199,"clutching":13200,"pga":13201,"cyclist":13202,"inflation":13203,"flats":13204,"ragged":13205,"unnecessary":13206,"##hian":13207,"stubborn":13208,"coordinated":13209,"harriet":13210,"baba":13211,"disqualified":13212,"330":13213,"insect":13214,"wolfe":13215,"##fies":13216,"reinforcements":13217,"rocked":13218,"duel":13219,"winked":13220,"embraced":13221,"bricks":13222,"##raj":13223,"hiatus":13224,"defeats":13225,"pending":13226,"brightly":13227,"jealousy":13228,"##xton":13229,"##hm":13230,"##uki":13231,"lena":13232,"gdp":13233,"colorful":13234,"##dley":13235,"stein":13236,"kidney":13237,"##shu":13238,"underwear":13239,"wanderers":13240,"##haw":13241,"##icus":13242,"guardians":13243,"m³":13244,"roared":13245,"habits":13246,"##wise":13247,"permits":13248,"gp":13249,"uranium":13250,"punished":13251,"disguise":13252,"bundesliga":13253,"elise":13254,"dundee":13255,"erotic":13256,"partisan":13257,"pi":13258,"collectors":13259,"float":13260,"individually":13261,"rendering":13262,"behavioral":13263,"bucharest":13264,"ser":13265,"hare":13266,"valerie":13267,"corporal":13268,"nutrition":13269,"proportional":13270,"##isa":13271,"immense":13272,"##kis":13273,"pavement":13274,"##zie":13275,"##eld":13276,"sutherland":13277,"crouched":13278,"1775":13279,"##lp":13280,"suzuki":13281,"trades":13282,"endurance":13283,"operas":13284,"crosby":13285,"prayed":13286,"priory":13287,"rory":13288,"socially":13289,"##urn":13290,"gujarat":13291,"##pu":13292,"walton":13293,"cube":13294,"pasha":13295,"privilege":13296,"lennon":13297,"floods":13298,"thorne":13299,"waterfall":13300,"nipple":13301,"scouting":13302,"approve":13303,"##lov":13304,"minorities":13305,"voter":13306,"dwight":13307,"extensions":13308,"assure":13309,"ballroom":13310,"slap":13311,"dripping":13312,"privileges":13313,"rejoined":13314,"confessed":13315,"demonstrating":13316,"patriotic":13317,"yell":13318,"investor":13319,"##uth":13320,"pagan":13321,"slumped":13322,"squares":13323,"##cle":13324,"##kins":13325,"confront":13326,"bert":13327,"embarrassment":13328,"##aid":13329,"aston":13330,"urging":13331,"sweater":13332,"starr":13333,"yuri":13334,"brains":13335,"williamson":13336,"commuter":13337,"mortar":13338,"structured":13339,"selfish":13340,"exports":13341,"##jon":13342,"cds":13343,"##him":13344,"unfinished":13345,"##rre":13346,"mortgage":13347,"destinations":13348,"##nagar":13349,"canoe":13350,"solitary":13351,"buchanan":13352,"delays":13353,"magistrate":13354,"fk":13355,"##pling":13356,"motivation":13357,"##lier":13358,"##vier":13359,"recruiting":13360,"assess":13361,"##mouth":13362,"malik":13363,"antique":13364,"1791":13365,"pius":13366,"rahman":13367,"reich":13368,"tub":13369,"zhou":13370,"smashed":13371,"airs":13372,"galway":13373,"xii":13374,"conditioning":13375,"honduras":13376,"discharged":13377,"dexter":13378,"##pf":13379,"lionel":13380,"129":13381,"debates":13382,"lemon":13383,"tiffany":13384,"volunteered":13385,"dom":13386,"dioxide":13387,"procession":13388,"devi":13389,"sic":13390,"tremendous":13391,"advertisements":13392,"colts":13393,"transferring":13394,"verdict":13395,"hanover":13396,"decommissioned":13397,"utter":13398,"relate":13399,"pac":13400,"racism":13401,"##top":13402,"beacon":13403,"limp":13404,"similarity":13405,"terra":13406,"occurrence":13407,"ant":13408,"##how":13409,"becky":13410,"capt":13411,"updates":13412,"armament":13413,"richie":13414,"pal":13415,"##graph":13416,"halloween":13417,"mayo":13418,"##ssen":13419,"##bone":13420,"cara":13421,"serena":13422,"fcc":13423,"dolls":13424,"obligations":13425,"##dling":13426,"violated":13427,"lafayette":13428,"jakarta":13429,"exploitation":13430,"##ime":13431,"infamous":13432,"iconic":13433,"##lah":13434,"##park":13435,"kitty":13436,"moody":13437,"reginald":13438,"dread":13439,"spill":13440,"crystals":13441,"olivier":13442,"modeled":13443,"bluff":13444,"equilibrium":13445,"separating":13446,"notices":13447,"ordnance":13448,"extinction":13449,"onset":13450,"cosmic":13451,"attachment":13452,"sammy":13453,"expose":13454,"privy":13455,"anchored":13456,"##bil":13457,"abbott":13458,"admits":13459,"bending":13460,"baritone":13461,"emmanuel":13462,"policeman":13463,"vaughan":13464,"winged":13465,"climax":13466,"dresses":13467,"denny":13468,"polytechnic":13469,"mohamed":13470,"burmese":13471,"authentic":13472,"nikki":13473,"genetics":13474,"grandparents":13475,"homestead":13476,"gaza":13477,"postponed":13478,"metacritic":13479,"una":13480,"##sby":13481,"##bat":13482,"unstable":13483,"dissertation":13484,"##rial":13485,"##cian":13486,"curls":13487,"obscure":13488,"uncovered":13489,"bronx":13490,"praying":13491,"disappearing":13492,"##hoe":13493,"prehistoric":13494,"coke":13495,"turret":13496,"mutations":13497,"nonprofit":13498,"pits":13499,"monaco":13500,"##ي":13501,"##usion":13502,"prominently":13503,"dispatched":13504,"podium":13505,"##mir":13506,"uci":13507,"##uation":13508,"133":13509,"fortifications":13510,"birthplace":13511,"kendall":13512,"##lby":13513,"##oll":13514,"preacher":13515,"rack":13516,"goodman":13517,"##rman":13518,"persistent":13519,"##ott":13520,"countless":13521,"jaime":13522,"recorder":13523,"lexington":13524,"persecution":13525,"jumps":13526,"renewal":13527,"wagons":13528,"##11":13529,"crushing":13530,"##holder":13531,"decorations":13532,"##lake":13533,"abundance":13534,"wrath":13535,"laundry":13536,"£1":13537,"garde":13538,"##rp":13539,"jeanne":13540,"beetles":13541,"peasant":13542,"##sl":13543,"splitting":13544,"caste":13545,"sergei":13546,"##rer":13547,"##ema":13548,"scripts":13549,"##ively":13550,"rub":13551,"satellites":13552,"##vor":13553,"inscribed":13554,"verlag":13555,"scrapped":13556,"gale":13557,"packages":13558,"chick":13559,"potato":13560,"slogan":13561,"kathleen":13562,"arabs":13563,"##culture":13564,"counterparts":13565,"reminiscent":13566,"choral":13567,"##tead":13568,"rand":13569,"retains":13570,"bushes":13571,"dane":13572,"accomplish":13573,"courtesy":13574,"closes":13575,"##oth":13576,"slaughter":13577,"hague":13578,"krakow":13579,"lawson":13580,"tailed":13581,"elias":13582,"ginger":13583,"##ttes":13584,"canopy":13585,"betrayal":13586,"rebuilding":13587,"turf":13588,"##hof":13589,"frowning":13590,"allegiance":13591,"brigades":13592,"kicks":13593,"rebuild":13594,"polls":13595,"alias":13596,"nationalism":13597,"td":13598,"rowan":13599,"audition":13600,"bowie":13601,"fortunately":13602,"recognizes":13603,"harp":13604,"dillon":13605,"horrified":13606,"##oro":13607,"renault":13608,"##tics":13609,"ropes":13610,"##α":13611,"presumed":13612,"rewarded":13613,"infrared":13614,"wiping":13615,"accelerated":13616,"illustration":13617,"##rid":13618,"presses":13619,"practitioners":13620,"badminton":13621,"##iard":13622,"detained":13623,"##tera":13624,"recognizing":13625,"relates":13626,"misery":13627,"##sies":13628,"##tly":13629,"reproduction":13630,"piercing":13631,"potatoes":13632,"thornton":13633,"esther":13634,"manners":13635,"hbo":13636,"##aan":13637,"ours":13638,"bullshit":13639,"ernie":13640,"perennial":13641,"sensitivity":13642,"illuminated":13643,"rupert":13644,"##jin":13645,"##iss":13646,"##ear":13647,"rfc":13648,"nassau":13649,"##dock":13650,"staggered":13651,"socialism":13652,"##haven":13653,"appointments":13654,"nonsense":13655,"prestige":13656,"sharma":13657,"haul":13658,"##tical":13659,"solidarity":13660,"gps":13661,"##ook":13662,"##rata":13663,"igor":13664,"pedestrian":13665,"##uit":13666,"baxter":13667,"tenants":13668,"wires":13669,"medication":13670,"unlimited":13671,"guiding":13672,"impacts":13673,"diabetes":13674,"##rama":13675,"sasha":13676,"pas":13677,"clive":13678,"extraction":13679,"131":13680,"continually":13681,"constraints":13682,"##bilities":13683,"sonata":13684,"hunted":13685,"sixteenth":13686,"chu":13687,"planting":13688,"quote":13689,"mayer":13690,"pretended":13691,"abs":13692,"spat":13693,"##hua":13694,"ceramic":13695,"##cci":13696,"curtains":13697,"pigs":13698,"pitching":13699,"##dad":13700,"latvian":13701,"sore":13702,"dayton":13703,"##sted":13704,"##qi":13705,"patrols":13706,"slice":13707,"playground":13708,"##nted":13709,"shone":13710,"stool":13711,"apparatus":13712,"inadequate":13713,"mates":13714,"treason":13715,"##ija":13716,"desires":13717,"##liga":13718,"##croft":13719,"somalia":13720,"laurent":13721,"mir":13722,"leonardo":13723,"oracle":13724,"grape":13725,"obliged":13726,"chevrolet":13727,"thirteenth":13728,"stunning":13729,"enthusiastic":13730,"##ede":13731,"accounted":13732,"concludes":13733,"currents":13734,"basil":13735,"##kovic":13736,"drought":13737,"##rica":13738,"mai":13739,"##aire":13740,"shove":13741,"posting":13742,"##shed":13743,"pilgrimage":13744,"humorous":13745,"packing":13746,"fry":13747,"pencil":13748,"wines":13749,"smells":13750,"144":13751,"marilyn":13752,"aching":13753,"newest":13754,"clung":13755,"bon":13756,"neighbours":13757,"sanctioned":13758,"##pie":13759,"mug":13760,"##stock":13761,"drowning":13762,"##mma":13763,"hydraulic":13764,"##vil":13765,"hiring":13766,"reminder":13767,"lilly":13768,"investigators":13769,"##ncies":13770,"sour":13771,"##eous":13772,"compulsory":13773,"packet":13774,"##rion":13775,"##graphic":13776,"##elle":13777,"cannes":13778,"##inate":13779,"depressed":13780,"##rit":13781,"heroic":13782,"importantly":13783,"theresa":13784,"##tled":13785,"conway":13786,"saturn":13787,"marginal":13788,"rae":13789,"##xia":13790,"corresponds":13791,"royce":13792,"pact":13793,"jasper":13794,"explosives":13795,"packaging":13796,"aluminium":13797,"##ttered":13798,"denotes":13799,"rhythmic":13800,"spans":13801,"assignments":13802,"hereditary":13803,"outlined":13804,"originating":13805,"sundays":13806,"lad":13807,"reissued":13808,"greeting":13809,"beatrice":13810,"##dic":13811,"pillar":13812,"marcos":13813,"plots":13814,"handbook":13815,"alcoholic":13816,"judiciary":13817,"avant":13818,"slides":13819,"extract":13820,"masculine":13821,"blur":13822,"##eum":13823,"##force":13824,"homage":13825,"trembled":13826,"owens":13827,"hymn":13828,"trey":13829,"omega":13830,"signaling":13831,"socks":13832,"accumulated":13833,"reacted":13834,"attic":13835,"theo":13836,"lining":13837,"angie":13838,"distraction":13839,"primera":13840,"talbot":13841,"##key":13842,"1200":13843,"ti":13844,"creativity":13845,"billed":13846,"##hey":13847,"deacon":13848,"eduardo":13849,"identifies":13850,"proposition":13851,"dizzy":13852,"gunner":13853,"hogan":13854,"##yam":13855,"##pping":13856,"##hol":13857,"ja":13858,"##chan":13859,"jensen":13860,"reconstructed":13861,"##berger":13862,"clearance":13863,"darius":13864,"##nier":13865,"abe":13866,"harlem":13867,"plea":13868,"dei":13869,"circled":13870,"emotionally":13871,"notation":13872,"fascist":13873,"neville":13874,"exceeded":13875,"upwards":13876,"viable":13877,"ducks":13878,"##fo":13879,"workforce":13880,"racer":13881,"limiting":13882,"shri":13883,"##lson":13884,"possesses":13885,"1600":13886,"kerr":13887,"moths":13888,"devastating":13889,"laden":13890,"disturbing":13891,"locking":13892,"##cture":13893,"gal":13894,"fearing":13895,"accreditation":13896,"flavor":13897,"aide":13898,"1870s":13899,"mountainous":13900,"##baum":13901,"melt":13902,"##ures":13903,"motel":13904,"texture":13905,"servers":13906,"soda":13907,"##mb":13908,"herd":13909,"##nium":13910,"erect":13911,"puzzled":13912,"hum":13913,"peggy":13914,"examinations":13915,"gould":13916,"testified":13917,"geoff":13918,"ren":13919,"devised":13920,"sacks":13921,"##law":13922,"denial":13923,"posters":13924,"grunted":13925,"cesar":13926,"tutor":13927,"ec":13928,"gerry":13929,"offerings":13930,"byrne":13931,"falcons":13932,"combinations":13933,"ct":13934,"incoming":13935,"pardon":13936,"rocking":13937,"26th":13938,"avengers":13939,"flared":13940,"mankind":13941,"seller":13942,"uttar":13943,"loch":13944,"nadia":13945,"stroking":13946,"exposing":13947,"##hd":13948,"fertile":13949,"ancestral":13950,"instituted":13951,"##has":13952,"noises":13953,"prophecy":13954,"taxation":13955,"eminent":13956,"vivid":13957,"pol":13958,"##bol":13959,"dart":13960,"indirect":13961,"multimedia":13962,"notebook":13963,"upside":13964,"displaying":13965,"adrenaline":13966,"referenced":13967,"geometric":13968,"##iving":13969,"progression":13970,"##ddy":13971,"blunt":13972,"announce":13973,
[...]
